node {
  name: "data"
  op: "Placeholder"
  attr {
    key: "dtype"
    value {
      type: DT_FLOAT
    }
  }
  attr {
    key: "shape"
    value {
      shape {
        dim {
          size: 1
        }
        dim {
          size: 28
        }
        dim {
          size: 28
        }
        dim {
          size: 1
        }
      }
    }
  }
}
node {
  name: "Lenet/conv1/weights"
  op: "Const"
  attr {
    key: "dtype"
    value {
      type: DT_FLOAT
    }
  }
  attr {
    key: "value"
    value {
      tensor {
        dtype: DT_FLOAT
        tensor_shape {
          dim {
            size: 5
          }
          dim {
            size: 5
          }
          dim {
            size: 1
          }
          dim {
            size: 20
          }
        }
        tensor_content: "|\344)=\246K\206<\210\373\232<Mi\307;\260\002\240<\222u\253=\325_`\274\377:\250<[*s=\322m\202=\217E\221<\213\300q<U\021\334<\301\204\\<\242W\025=\010\233\337<\232\300\016=\201k\014=\263\"_9\250,\014=w\324m=\347\264\\=\223Pc=v\316\303;\357\215!=\024-\223=\207\264k<;4\037=+ja=6\326i=\027\344\265<\276\352*=[\325\t=\313\321Y=\273\261H=\233\364\260<\366\2052=\244\355)=\024\315\314;\374w;=v{W=U>\202=^\225i=V\235\r<j\003e=\352#\203=:\242*=YfP=\254\245\211=\317p\241=FSP=\323\320\217=[\326\212=\324\363`=\n@\203=\2670W=\323\276\202=\006F\025=<\244H<\310[@=\345\253o=\026\254\207=V\037\020=\272\266\337<fYb=*c\221=\300,\036=X\004_=5\314(=\300\256J= \343f=\205\001:=\220\254`=\320Z5=\032|2=\255(&<\034f\207=a\tt=\335Y\024=\337\264\"=C\302;=b\371&=|\332 <Oc\374<\367B2=3\345\237=\300\217p=\014we=+s\377</ir=j\246W=\300\307L=\342\216F=:\300]=\006\022H=\220\032\200<\340\234K=|\210\'=\201\263I=`?C=nf\177=\n\245\025=B\\/=\273\013\266\274\016\346V=\023\256`=2\322\223;<\210\"=8\214]=\337\243\211=\3323\256<\256\243\r=-\237S=<\345;=\013\"p=M\260\373<c5\203=\024&\026=\256\343\207;\223\'u=\277\005\202=\372\233L=\005T\202=:\320O\274\007.z=G\301\206=,\201\030=\272BN=\2559\225=\001\355a=\016\037\033=5\027D=\367\267\214=\366\377H=~\177^=\344\336I=\347\030\232=F\243x=W\304\245<_\237\214=*(~=\334\330\232=Kj\222=\321\205\370<\301\n\225=\014\004:=\024\243i=\026\320\177=\234y\201=\311\037\235=\224\031\202=\313\260\211=\332\225\221=\202\310\217=\3125U=/\321\017=\315\240\221=&\230i=\324T)=J&\226=\314\217\200=\215\247\250=\025\304(=p8W=\036S\214=\372\220-=0~q=\027\265\210=\273\"\203=A\326w=\'\016\202=\217\312\224=\303\354\225=N\372\245=\r\010\207=/\310%=\377\257\222=iv\252=\370\272;=\026\356\232=\342\274C=\266\306v=}\345\236<\217\325p=m\026W=[\221==\207q\234=\370\365\201=\030\323\332<jhQ=\032>w=\364\300\233=JA\016=\030\376\222=\274\352h=\207\037\317<s\244\222=\001\020\204=g\310\204=\231\030\223=\n\200]=\370\224[=\311\"m=\277a\350;\336wU=\373\263\010=\250l\206<\277\2510=\004\245\220=2Y[=\313\0021=\366g\007=\237Jm=\305\\\205=\363\313x= \334o=\321?\014=\361%\201=\244\337\'=\332W\034=\377\320\221=jxt=\366\\\254=EL\222<h*T=$M\227<&S\t=rm{=\031\033\206=\026]\215=\336\033u=)2\217=a\330\263=[\034V=\002\301\255=\271b\226=\"\254\201=\243\274\254=\031\0233=<ZC=[\240\241=\027\035\217=\t\276\241=\377L\230<T\347i=M\032.<\300\303\221=\0363\245=\261\032\200=\374\326\270=\005\320\256=\213w\215=`\207\230=$\344\225=p*\266=\337;y=\245.\234=\032\017\263=\227\250\207=\354\274\225=\t\205\233=\014%\216=Z\030`=|\357\"=\006x\245=\325*\005=?*\222=\213\266\266=\313\0378=\177\324\207==\263\211=\3700\271=l>\203=\303\301\206=2\303\271=C\226~=\321\331\237=k\314\215=\023n\177=\355\020\253=\346\004\003=\247\237z=\216\216/=\332\350x=\201\327\237=\375A\030=sP\221=\267A\205=h\263\001=B\313\230=\257\274\205=3Ds=\247\n\374<\2243\233=\3609\226=)\022K=[w\210=1\033m=r\250\250=\262\323\214=[YA=\335\006c=G\332S=\350$I<2\314\305<\035\t\221:\275\366\341<\367\351Y=w\026g=\322\277I==\035R=\031t\035=\324\366o=`C_=\033\376K=@\231\204=\320R\017=\206\355]=\2342\222<Y(~=\300Z\227=|\374H=\337\331\210=\213\231\235<EB/=<\013\005\273\0341I=@\302v=Ns\215=,U|=\377\305^=\204\200s=\353\342\200=\014y\205=\276\255A=\205\265h=m\036p=\3424s=\230\027\025=\303;^=\337\003\245=Q}\234=\344]\235=\034\226(=\322\223\217=\235\260\013\274\261\236\232=\357*\226=\014L\201=v(\251=S4\204=\305\317\220=\203a\263==t\245=`\206\213=]\216\243=p]\223=\177\201\214=\2120==\005al=-\265\202=\215\030\257=i\273\234=5\311\211=\023c\236=\037\276o\274\241s\270=P*\246=\374\023,=\311F]=\300M\246=\201r\236=\203\203\201=\2065\256=\237\210\231=\036\'\223=l\033\215=\337\204\207=R\226\246=g\230\217=\250\264?=\006W,=\255\267U=\316\016\226=jbW=l\330)<\022\261e=\030\365\204=\270\223\257<fi)=\357\306\231=\332\301\210=\201\246.=\255\336p=\227\265d=^\332\205=\317\254\222=\320\367O=\362\203\223=w\246\217=/\320/=\031\224\000=4\201K=\366\343 <\245\331\216<h\264O\274\254<\321<w\347\000=\377|b=\275\312\002=\201c\267<\3364\025=m-F=#\376\373<I\203J=J\035R=\263\231\003=\241RE=\034my<\000R\'=\315\255\220=\265\306+=\340\246\221=\001\332\204<b\350\022=\367\212\300\274\352\327H=\277\213\021=\215\254Q=\004[4=\250M8=wpJ=\003$n=\005\322`=\007\303k=\215\347O=\256\236\016=\375(c=tm\021=^\036t=\254av=}\345\210=4\016\202=\322I\376<\205\244^=\220\202@\275\005\314\207=D\304\200=g.\204=c /=\301M1=\000\231<=k\365L=\362\232(=\223\237,=\262\362\216=\270\027B=j:d=\202?4=\303\272I=\211\224c=r\372\221=\332N\243=\342\003e=\323\303\227=\240\213\023\275N%\231=\025\255`=r\272!=[\263!=\214\223\242=/\036m=(\300\'=\315%e=16t=\341ha=pG\223=\']\006=\020\320m=\272\364T=^\361\377<\233\333\037=UI==\362\340|=\316\371\203=\374\373$\274\254i\\=w\324E=\327Q`;\034\372\220<B\236d=\032\312\021=\361\336\230<qwA=\302\004\353<\315\0255=`<X= t\342<\035\"k=\363\204G="
      }
    }
  }
}
node {
  name: "Lenet/conv1/weights/read"
  op: "Identity"
  input: "Lenet/conv1/weights"
  attr {
    key: "T"
    value {
      type: DT_FLOAT
    }
  }
  attr {
    key: "_class"
    value {
      list {
        s: "loc:@Lenet/conv1/weights"
      }
    }
  }
}
node {
  name: "Lenet/conv1/biases"
  op: "Const"
  attr {
    key: "dtype"
    value {
      type: DT_FLOAT
    }
  }
  attr {
    key: "value"
    value {
      tensor {
        dtype: DT_FLOAT
        tensor_shape {
          dim {
            size: 20
          }
        }
        tensor_content: "\241\246\'<\037\212\223;\033\242j< \321\232<\327\3740<,\201\220<K \\<\314\330)<\351\371\231;0\361\203<8\213e<\240+\311;\031F\204<\375tc<\342@\322;\331\311+<\230\337\001<\251\210\302;\247\017\210<\263\205P<"
      }
    }
  }
}
node {
  name: "Lenet/conv1/biases/read"
  op: "Identity"
  input: "Lenet/conv1/biases"
  attr {
    key: "T"
    value {
      type: DT_FLOAT
    }
  }
  attr {
    key: "_class"
    value {
      list {
        s: "loc:@Lenet/conv1/biases"
      }
    }
  }
}
node {
  name: "Lenet/conv3/weights"
  op: "Const"
  attr {
    key: "dtype"
    value {
      type: DT_FLOAT
    }
  }
  attr {
    key: "value"
    value {
      tensor {
        dtype: DT_FLOAT
        tensor_shape {
          dim {
            size: 5
          }
          dim {
            size: 5
          }
          dim {
            size: 20
          }
          dim {
            size: 16
          }
        }
        tensor_content: "\330\003\010\274~\354\025=\034|\336\267{\354w\274f\240U\2741\326\r<\345f^\274\343\211?\274{,\240;\360\032\235\274\322,\357;\023O3=\201\274D;\237\342!=6m\205<(D\214<\233}(\274\223\357&=\215)\033<\250}\362\274\320<\003<SRx<\343\333\327;\343\'\010<)\004-\274\254ru\274\013P\312\2739he=\231\2136\274\3026\\=JLu\274\017V <o\016\315\2749J\234<\201}H<%\351\253\274\247[\222\273\321\225\275<\257\\]<\255\254\306;\024\323\000\274\355\202\032;\356I\013\274\246VV=l)b\274\377\264.=w\n\353\273\031s\245<gD\242\274Q^#=d\322\253<\274#\302\274\030\001y\274B}\334;\'\206\016;`h\266<7\255\212\273lS\206;\033\241\'\274|  =\225\035\215\274\2517D=b\"U<\035\326\273\274\271^\255\273\025\261\036=A\217\016;\026&;\274\"\014\250\273N\217\240<\025g\005<\2412\272;\267Z9\274l\302\204\274\020\236\202;\363\361 =\320\240\237\273J\t5=\221\271}\273:M\t;f[\321<\010\363\262\274\"\021N\274\033\232D<\"\017\272\273+\200\342\273U\007\260<\266\347\177<\313G =v\264\205<\341s\210<\013\202\320<\212\373l\273!&\020<L<\025\274W2\357<\337\363\250\274_Y\002=1n\214<4\253\370\274\265\256\203\274\303\205\312<\350v\r<\202\331u;\370\306v\272\231\334Q\273\\\022\202\274\374\275B=\\\270\246\274e\326\336<p-\372\273?\335\214\273i`\212\273I\037,=3\342\235;\340;\215\2746\226y\274\002\000\363\273^\337\334;[\362.\272K\230N<\017y\364\273\316\026\215\273\2029[=\202\336\203\273\222/O=%\227\237;|\343o;9\255\237\274W\234\004=\236\010B;@\205n\274\023\372~\274g\344l<\030\003\023;\242 \034<\2530\216<\302\315D;W\256j\274\266v\030=\237:\000<2\315\350<l\206\337;\273\257\013=\343j\'<n\031\351<?\233)<\013\267\2738\333\303\315\274~[\322;W\217\';\027\375\232;\205\257\\:\0045\336\273\334\317\"<\366\331;=\313\035t;\301&\035=\\\232y\274\264v\245<P\036\333\274\025F2=\270^*<\332[&\274Y\336A\274\275\177v<!\252\004<+1\261<YP\\\2749n!;\367\232\332\273voH=\330\300@\274u\352I=\\a\000<\360\345\245<\271b\023<\033+^=\273B\231<\035\264\023\275\332\250#\274\343)\231<*\372\355\273\355o\217<\240P\317;)\304\324\274\266\036\027\274\355\237\036=\005\'\260\273\266w\027=\\l6\272\362\376\005\274\213/!;\307\365\031=\024\365J;\032\271\266:\364\235\264\273\312\327\001\274t\304p\274\352\r\377\2739\001\373;\220\334\365\273}\213A\274\251\343;=xh\214\273\010\036\371<|\260;;\201A\327<\225<,\274v\353\017=\353B&<\366\307\226\273i<\225\274\222\261,<\252\037\212\2744x\302\2738q\261;\352\r\003\274\376^\214\274c\317&= \212\262\274\375@F=\005>\363\273I5\333<\300l\263\274\277E\027=\363(\034<:\226\362\274\330`\327\274\'T\212;\331\357c\274\305\022\213;.Y\213<\340;\266;v7}\274B$I=5j\324\273:\340\356<\3324\312:Ah\n=*\343\210\274\000\207\034=\014P\235;\236\021\000\275;\265\001\274\376\'\372<\330\n\034;\257\216t<\0378\\\274q<\032\274k\227\037\274\327\317\022=\003Q\255\273\360\231D=\013\333\366:\264|\243<\307\352R\274\222\232\021=\245\326\250<\3140\200\274\201H\0229\235\377z<\'m1\2735\033\001=\354\335c\274dT\303\273\222\t?<\264~B={\276\035\274\002\013\003=o\t>\274AO\231<\302\266$\274\237\216\374<[\256s<%\376\360\274MH\324\273\024u\"::v\020\274\013\366E<\031PP<\301Z\215\272\256\376\3408I\363E=\203\203\301\274\3720\026=3\016/\274C\342\365;Y\316\327\273\035(\377<\021n^; \302&\275\212\371\277;\r\000=;\355B\212\273\214?\304<!QO\274\017\301\316\273N\022!<\031\304.=\372\202|\274 \334,=CSA\274|y\264\273Fu\274\273\222\375\036=\003A\002<\315\356\274:|\347)\273\230H\223<\003o\204<\232x\234;\346\254\2339\2742\346\2736fF;\210dU=h\332\032\273\201\007\354<\362\314P;=8\252<.\322\003\274?\214K=kV\031=\263\346\013\275z\252\335\274\374\231L\271\241\223\037\273\215\207\003=F\027@;\325\367\304\274\236g/<\215\236(=A\273\363\274\r\277;=sdv<X\267I\274bO\215\274IH\021=Q\202\324<\367b\032\275\344\306\222\274\343\r\221:\364\\_\273;\216\212<\265[k;\010\253a\274\352S,;\253k\'=\362\022\365\274\252\350$=\314\315>\274vwQ\273\351_\204\273;\244O=d\234\372<!-\373\274\215\336o\273\307[h;\214Ns<v6\014=\276\302\203:\302\327&\274\025\017\2429\303\344==,\0365\274\016\214)=\320\251\035<w#\227\273z\262\315\274J\024\345<,s\214<\341\177\233\274\221:\031\274ga\221\272\373\241\347<\216\233$=\360\2030\274\346\2557<tq\030\274\3278\022= 1:\273\370\211\300<\020{\247;wo\336\274H\203r;,t7=\265\360\252<]#\273\274T\325\374\272\003\367\260<\227\360\330<\271\013\271<\265!\346:$Y\236;\027\261\220\274\2721\021=\376\323\365\274\356\255\370<#?\252\273\277\t}\274\376\275\266;e\226\234;\233\361\247\273\270\020\236;E\t=\274\024\315\t\274\272#T<-\031%\273\276\361/<M\317\036\274($\036=\320G\n=k\031\356<\272\357\340\273b\314\335\274\250\302\004;D\351\342\274\026\360\205=\000[\326<x)\334\274\034.\272\272gJI<(\007\252<* \206<2\253s\274v\304\014\274\345\034\273\274\204\251\003=\230%\217\274\022\213\026=b2r\272\177\226\020\275\322F$\274\220z$=\325\337\247<\003\027\351\274\316e%\274\375\350\262;d\372\250<h\212+=\301\002\254;2K\0229-\177\023<BJ2=LQS\274\250VE=\270*C\274\023\223\231\274\277\267\301\273\344\367.=O\376\357<\355\030\030\275\3410\225\274\0178\226<\334\036\234:~]j;T\344m\273m\022=\274:\n+\274N\274\346<A\345\017\275\272l\005=\001zv\274u%\362\271\201m\005\274#\376\333<,\301\255<\026u\023\274lhV\274\320\225<<n\\\341:\371\237C<\341u\004\274\312\2153\274bTW<:\206H=\007p\203\274\237\251\002=\265\223\360;\004\242i<\367Y8\274d\237!=n4\010=\363;(\275\231\026\246\270\030Zs<D\346u<x`\275<\007\326\203\272\364\\\016\2749g\333;\234\r\035=7\237\022\275$\200\014=+\323\351\273a\335|\274@\215\036\274\245QP=\240\376\036=\247\250\005\275\362\252\267\272\254T\212\273,C\251:7B\306<\357e\251\274\371\032*\273\014y\244\273!\025\036=)n\377\274u{4=(\340\345:N\267\354\274\351\272\367\274\373\310G=\335*\031=\231M8\275HW\003\275\214K\277:bO\273;\"i\212<\335t~;\256-\"\274F\357\224\274\366\252/=l\213\222\274y\244Y=\343CE\274\356.\227\274HQ\361\274Il0=\244\222*=\354y\033\275M\242\322\274\252\030\212;\210\313q<\344\317\233<\035\256\301;*\227>\273\315\256\333;\230\004|=<\340\213\274\231]<=I\250\037<\007d\311\274\230\346\212\274\326\3569=o\272!=\2112\023\275\226y\275\274\"hP\273\023f\377;\363\276c<,W\211\274\305\344\275;\234\351\317;\365\267G=7U\007\275\216\001\033=P\255$\274\246\242\313\271\254\032I\274N^\013=p\201\205<\2737\343\274\217\230\235\272\024\331\266;\222l\t<.\206f<r\301\247\273M`\300\274\300\252\244\274\347\260)=\264\367\031\275\2671K=.\371\036;j<\r;t\222\350\274KG4=\327U\264<\227\007\020\275\306\245W\274\005v9;{}\353<I\021\373<I*\216<\017!\261\273\021r\307\273\254\234\031=\032F\326\274Fz)=\366:\2469v!\230\274\241t\326\274\222\302n=\003\276\320<*`\036\275\310\347\177\274*\307$;>T};\361B\226<\007m\251\273\027\200\264\274\212\221!\273\027\025u=\302\333\023\275\231\337(=;y\257;F\256\020<\020\027D\274U\030n=xH\340<\007\213\376\274\232t\030\274\361\215V;\244\275\306<\203|\027=E\321)<%6\240\273(\001\006\274\316\3721=\347\242r\274\364\254\203<hH4;\317\276J\274\323\013\206\274?\r\177=*%\007=\220\022\322\274\333hG\274Z\023\031<\246\326+<<b\235<n\272\324;\335x\343;EbZ<H`;=\334\206\327\274mQ\037=\027\232\004<\207n\255\273\017n\207\273K\225\027=<\031\342<c\367\221\274\030\364\235:\232\257<;\341`\323<\000f+=\264\272\013\274jo=\270\021\275~\274\330TG=\356\003\232\274\2214\020=\374B\002\274\355\013*\275\2129\031\274\370\361I=\241\204\264<W \023\274\362\367\277\271\360H\250;\006h\037=\005\371\016=\361\272\003\274\327?\305<\345\240\261\2729\252#=\200\237\333\274:\027e<\307\365+\274\2028\033\275g\332\261\274\n\225\037=\342\032\027<\250\002\274\273\212\306@:\336\256b<\237\372\313;$z^=\272\310%\274\360{\010<Q\351\205<\275\026\004=\014u\263\273}\360\355<\270V\234\273\000\272\272\274\306\035x<\002ga<\364a\204<\327\017\207<J\276\244<e<\337\274C\246\317<\214\030q=j\371\251<\032 \317<\263\262\034<\265]\231<|@\312<\271W\316\272\237\035\317;\341\035\365\274>\255E;3\266\023=*N\243<\246W\304\273a\355\341;\201\352\346\273\034\002\001=! \032=\275\006\r<\273vE<\346w\"\274\264u?=\205\317%\273\353\243\266<vr%<g\344\023\275~al\274Ad\"\274\342N\206\2746\01777[ \032\275F\373\261:8}\201\274\351#\327\274lHx<\033\230\222\274\220[\317;\302)f<\316\327\263:\323\t\334<3@d\274\337\037\260\273F\225\323:\301\372!=\004k\373<:\376P\2748\344G<\260&\325\273\026#$=\375|\001=\331\241\211<\253)k;\305/\257;\330\301\205<\202\221\336\273\034\005a<\300\366\007<$\352$\275\215\344f\274\210\276\350<\027\201\n=\215??\274w\262\254:`r\036\274\265\027\007=\220g\225<*E\352;)\240\237<MQ*<\025\034\"=S\246M\274=V\331<\236!\035\273\354\323\014\275jbe\274 G\030=>p\316<6\306\306\274\370tj<\266\016\026;\306\225\373<\014\272\301<\222?\263\274O,\267;\341r5<m?\344<\032\016\241\274,I\006=\315\207};=>\n\275\001*(\274\373JO=\252\202\317<\255^\203\274\350\321\262\274\313\263\032\274\361\344\315<\310\260\n=\004\245\036\274\250\270\244:\361;V;\004\331f=\317@4\274\377\320\301<(\330o\274\027\273\010\275J]\340;*aO=\232\2079<\034\001@<l\262U<\274\033\255\273\371\230.=\234@0=\022\342\304<\261\241p<s>\311;Q\370(=g\254\210\273`2\346<l\216\\\273;\365\026\275\201\332p\273S\372Y=8L\257<\366/O\274\335u6\273#\247\016\273vM\014=\340*\375<\313\016\211<\223\021V\27324\025\273\315\205\364<\220\213C\274#\363\316<A\010\364\273-\030\270\274p\306\307\274\355\026\n=\002\216\326<\364\035\360\274#\202\263\274\223\034+<%\241\020<\343\217R=\324\311\207\274\026\346\035<\366\'S\274\024\332\024=\224\274\034\274\237\216\r=N\"@\274\265\216\371\274u\013\221\274cF\014=\277\362\314<\210\303m\2732j\\\274\355\0275\273P\360y<\326p\021=\205\224\362;\233\001(<\305\2254<!\201W=f(\303\274#/\323<#\3719\274\312\264\013\275\n\266R\273\375\254\203=\236\373\310<\315\313\034\274\005\272\210;e\3439\274/\313\372<\242I\013=5\347A<\220\237\215;x,\017\274\305}Z=\375.\303\274\005\211\363<\314\3475\274\021\307\013\275$\372\006\271\037n =YF\243<\\\274c;}$\346;D\353,\273?\305\253<\356\251M=\274\253\031\274\r/\212\273x\316\304;\342\242$=,\357\245\273`\264\323<\273\270\033<\254\347\334\274\002\311\360\273\355\273!=\270\261\342<f\262\254\273\024\341\\\274z\360\234\274\000d\022=\247\334\034=\250A\262<\032i\350;\315\033V\274\372\306\013=S\331\332;\310\255\336<\026\004\247\274\000v\203\274)\200(<\343\257\201=\363\034F<4\244\257\274\300:\222\274\300(\020\274\024\254\315;\334=\350<n\306?<\316\316\321\273\231\303=:\331\202(=\202(O\274\227\350\216<6\030%\272~)\334\274\251]F;rse=S\034\336\273\316\232\204<\"\242>:\231\352\355\274\234\"\310<\030`M=\263\244\212<\214:\252<\'6C\274\315\257\021=\216\240\353\273\333\332E<#\327(<\346\237\032\274\326\177K\273\301\244,=6\240\363<\262\300+\274 \254\025<Kh\244\274\317\014b<}4\027=h\3624\273\250ep\273\204)\217<\264\2163=\247\316\235\274*]k<\360v\032\274\300\2703\275\036\204U<\252\221J=\241\320S\272\232W0<\362|\010\274q\210\014\275ya\344<\234S_=\251\2155<\236\023\372<1\323Y\273\253\210\311<;#\016<\034\274\210;CL\002:\371[\024\275\371\253\246<I\206\017=\252\177\217\274\000\262\010:\373\035\250\273\264\221\032\275\037\253\277<\356\374h=\344\213\356<M\204\\<\252\370\205<8\372\355<06\002<e\234\215\273p{T\2743J@\274b\273S<\225\276P=[t\343;,\211\265;\303(\335\272\323J\317\274\324\002\027=}d\002=eF\205<\020^\351<[\251\007<7\035*=p\347/<\204 V;\214\242\217\274K\335\240\274\027\004\264<\026\237\335<\371\331\334\274\230\007&=\211Q\377<Hp(\275m\022\246<\212\355<=\372f\372<\260;\272<\r:\216;\331\341\027=z\3275=\207\314\310;\271\007\326\274\272\2542<l\332\270<vf\013=\307\304\002\273$l\024=\324\376\230;}N5\275\371\267\212< \262#=\217\032=<\347Z\004=d\tA<\032\337u=\356\230\223<\0270\215;\2664\025\274X\242|\274\327]\020\275\265D\371;,\273K:#\272\003\275\207\025\265\274\306*`\274\357\026=\273\200\020\004\273n\027P;P\202\021\275\323\376\3739\020{\021=\352\375:\274\\\252\004=\346\021\221\274\356\237\001<\000\375}<\347\355\364<\273\200\245\273\2109\277<\333\315C\270\213\307\332\274\002\355\010=\327\237\332<3\272\216<\202\253\333<9\376\245<\350\005\263<nN\234<\376@\263\271N\240\265\274\267\332Y\273\003\377\314<\r\217\002=\301$\353\272\357(\004=:bl<[\014\000\275\356\037\342<v{\036=0R\233;\216\273\244<u\245\304;6)\025=\004Y\231<2U\211:\213\tl\273\230\305x\274\375\326\247<C\270\336<i\226\250<\244\010\255<3\340\227<\263P\255\274\r7\345<(\254#=\225E\335<>\021\304<\006+\210<G(\355<\020t\302;\206LP<\356\"\032<\272\253\357\274\203\370k<\314-l<\364\013\220\273\270\350\034<\3607n\273SO\357\274\233\377\022=\257\220\371<\205\221\020;\341{\216<\214\2406<GEl=\013t\004\274\350a\016<\372\365~\274yL\215\274\244\224\247;\035\327\267<\033\211{;\250`\314<\226RU<\362)@\274\356o\342<\341Z\027=\316\017/<\330\272\232<\"j\000=Z/5=2D\317<1\247\203<\230\023\006\275\357\277&\274\367_\367<\325};=\220\261\343;\345\251\005=\226\037\266;\326]\330\274\316\247\340<]\314&=x\243\341<$\263\200<\033\360\272;\360\335.=\255\254\275<\275E\375:x\360\323\273;~\315\274N\227\241<\335C\362<\353\335\301\271\022!d<\311\213\311\272?`f\274\212\245,=~L<=\374\3278<\341\031\272<\030Q\222\273\025\033\376<%\023@;\264.\027<V\345\317\273pC\032\275\327\212`<L\2748=\t\245\303\273\303N\311<5\367\341;})\177\274*\251%=\344\321\034=&\262\354<\206&\237<\232\205\014;\214\204\025=\363\260R;<\202\333\272-\035\271\273\017\222O\274\347_\330;\024??=\2469\377\273\257\234\027;\207!\301<\312\320\256\273?\277\010=G\271\020=\365\021\311<\340\335\314;\016\002\016<\266e\034=d\367\263<\202\244\312\272Up\241\2745O1\274\330|\363<\177\255,=\373rO<\327\"\201<\205\275\211<\361\363\226\274)\237\"=o0p=\376:\337<c\013\231<D\221\'<\340\004#=e\313\344<\330\367\210<\200X?\274Q\375\203\273\257\221\224<9z\337<\003\370)\274Z\022\242;\206\244 <\'a\227\274\205\365\253<\026Ne=\274dj<\317\232\373< \267\006<i\321\003=\217\230\200<\201d\207;\340c\206\274ut\224\274\032\217e<pn\014=\253\3202:\363d\322;\241\331\017\274\315\010\314\274\335\205+=WL/=\306y#<\272]\374<\242\376\372;u\336I=\203c\"<\033\365\013<o\016g\274\352\017\317\274\\UD<`\365\r=\245R4\274v\325\251<\005\224\301;\373\203\352\274\273\253\"=s\260`=w\372\340<B\325\001=\253HB<\322\213\020=\345S\022=LAQ\2731\234\327\274-\025\177;\246\324h<\\\007A=\273\000\026;\325\277~<\237\312]<O*\243\273\237\320\271<\305\331,=\311\354)<\367\222\252<\177N\234\273%\2718=5\246\3429\036:W:\271\314\253\274\226z\326\274\203w\214<\037\026#=P;\210\273^\260[<t/\277<\356\037@\275J*\207<\205\021\030=\356\366\335<\276\317\231<\363\237\033<\307II=J\376\030=\317D!;=h\r\275\307\357&<\241\215\366<\277\024S<k\376Q\274\250\316\261<8r\244<\250\360\306\274P\327(<\312n\033=g\365a<\313H\337:6\266\215<\013\3704=\334\030\243<\247\267\035\274\331XS\274W\237\324;s\002\336<,\225\256<\356 \251\273\221\360\320<\031\t\340;\216\306\014\275B\217\343<p\307Z=c\362\277;<\374\211\273\022\244\311<a\177\346<\303\206\037=\032\325\001\274\264\021\017\275\346\017\020\273a\321^<\216uN<\002x\237\274+\214\251\273\253\212\361;p\243\013\274\242\t\233\273\371+4=\323\220\274<\037j\217\274*w\'<\225+\023<}R\373<\354\370\202\273\274n\242\274\266\020\000=R\344\201<KI\277<\000U\227\274,\024\200<\265)\267;\322\2167\275\333}X\273Y:!=\246\010\267;(_\371;\231e\277;\034@G=\371r\312<\262/~<\266V\223\273\005\247><`\"\240\274\320d\274;\371\204\236\274\232\266\014\274\353\037\205\272\033\303\366\274\034\315.\273\320\214\343\272\261N\212\274<\177\331\274\t\201\323\274b\376\341<L\203\351:\343r8<\003\372\217\273h\301\265\274`\306\016<\320\206\027=\337\375\221;\262E\345<\370\223\216<\323\331\010\275\311\200\3139\022\360S=\310\376\251;\377i+<.\270\333\271\204J\266<\n\320\316<\013\3203;\263z\246\274\252\366\373<pJ\020=4\317M<\245\r\336\274\336z\204<A|\342:;\004\036\275 \346\253<\320\035^=~<\376;\'\231\362<k\202\252<\r\250\007=$\311\327<\0269\r<\303\211\203\273\177\203\331<\360\t\266<\301\337\000=\236g-<\243\354\257<g\335\355;\356\204\220\274E\"\362<\315\214F=\020\315\237<,\377\203<=\021\250<\326\t!=\342\014\021=.W\375\273\3710\003\275y\001\272;\214s\360<\326\342\332<\374\367\035\274\221:a<\\>\007<\342A\342\274F\306\225<\204\355\000=\014\253k<GR <t\316%<\352\003\007=z\354\240<\205\236#\274\2115`\274\205\003\245<\037\234\243<\247\003\351<\005\361=\274\334\010\020=\3146K<\243\332\037\275U\216J<q\333z=\332\267\337;\221\206\220<\206\006L<\302\337\254<sK9=\214\341\225\273\031\001\275\274\035\242\274<<\220\220<\007t\201;\357u\031\274\253D\326<$\223\274<\277\275Z\275\357\022\327\272\305]==\246\346\251<H\017\217\273\372H\257<w\200\270<q\375\025=\016M%\274(\014\264\274\235\351p<\245\000\252;\212\326\305<\227\321\3737\221\332\361<\'\305g<G8\021\275\262c\366<\334\'\371<\2224\241<G\342q<\034\2119\273C\231\270<\335\034\017=\016\313\033<\013\351\250\274\271\343\371;.^3<\r\323\313<\030q\200\274\225R\332<\347\344\243;\236\024.\275?\\\235<\361\325\006=\254\262\244<\023\374\177;\361W\253;-\224&=\034\227,=U\243\231;\'8\265\274\323\371\273<\244#\216<\231W\306<\214\333\316\273\"\316\204<\257\207\356;\302h\375\274\321\272\357<\316XA=un\326<O*\276<\036\354\220<\251\373\032=\301\341\243<_m{\274\240\340\360\274\005J\312\273 Kn<l(\n=?@\027\274\25489<\345\321\246<\271\212\317\274_\345\333<\210\2751=R+\326<\226s\305<mo\241;\303X\001=\007\231\330<\031\225\2278\263|\235\274\203\332\177<\253m\246<\361B\034=\371M\364\273\274\272\365;\317zg<\240\020#\275ea}<\031J\036=)\'\230<\253\t\331;t\343#\273\315x\r=\347\317\017=|}\230:\353\"j\274Lp\254:E\331\030=E\373\244<\021_\343\273\037\337\247<9\327\231;\2378I\275\301\215\324<\370\256\031=\366\367\325<\336\361#<\313\360\353;\307\326\360<\350\257 =\332\347\036<\303\355N\274K\340(<\023}\223<\227\357X<m\364)\274\213\266\215:\305\177u;\213\207!\275\232\273\2729\333\235N=\364x\001<>\313\214\273\276\032\023\274\177\312\254<\300\tm<e\270\030;\341\261\027\275.\001\230<\251^\302<QK\313;Z\214\r\274[}\243;\361!\002<H\030\347\274\'\206\332<.I#=\205\340\326<\253$\214\273\306Y\024<0\247\335<\301\243\273<\250\014\223\2748x\253\274\212\344\214<\243i\327\273\220\023E=\225\253\260<j,y\274b\330\017<\303\022A<\376\227c\274\363\253`<l\210\365:VO9\2742\242\253\274\331]\030=\006A\036\274\337\316\271<0\205\214\271A\276S<d\177\342\273\346\n\355<0@\261<#\035\244\274\227\320\315<\203]\270<8D\210\274>\363\005<\203i|\274$M;\274f\253\246;\351\322\273<`\357\360\274\201\3478=h\261G;\376\353\017<\275~\230\272[\322D=\234\201\274;\271\221L\273\212\276\344\272\334@\022=\202_\037<h\225\330\271\206&#\274\0212\217\273\227\014\335\274\230\247\247<\2624\200\274\374\272T=\"z\205<\212+\354;\306B8\274\275\307,=\017\225*=\311\017\276\274\303\312w;\\>\376<\202P\247;W\230\366<\337\335\257\274\341W\256\274<\250\r\273\321d^:\220R\272\274V\374l=\205\032\025<\370P\317\274\343n8\274F,\372<\346\325&=*\340\001\275\347$\373;\r\251\236<\213\034\021\274\t\000\240<\304\343-\274qSv\272X\304L\274\2215\002=h\316\300\274\302\306\372<(\306\310:\034S\272\273\2235\014\274H\225\361<4}\0029\320\005\023<\3519\306\274\0075g;\005\307\216<\234\347\324<\270Py<\001\242\251<\323\266\234;\3128p=\2376\251\273\\v{<\302\322\247\274\352\"\227<\322\364\353\274\301\034<=\355\355\365<\341<\314\274\306\311\253<\214\217\254<\352nC\274N\254\217<\225\241\260:Cj\003\275\204\221\370\274\260@3=\"\244z\274K\376u=sYJ<\032\235\205\273\233\025!:\202\336\037=\207_\027=\310\274\027\275w\215*:$\356\374<@b\t\274\207<\256<H\222\314;f8\275\274\370P\240\274P\245\340<\3346\206\274r\205p=\314X\252<\261`C;4\n\250\274\\B =\035\260\000<\244\206\216\274\025\237B9\'9\233<a\2534<\205g\362:\353\364\343\273\351Q\200\274\225\010\226\272`3\004=\370\342\001\274L\375\312<\361\351f;o\232\355<~\246\236\274\016i\361<\253\357\"<\314\350\276\274i%\304:\237\331&<\"\224\214\274\311\244<<\3463\243\272\333\217\361;^\322\364\273\316Ry=\207?\245\274\2064u=\353H\223<\212\347\267<\"\365J\274\272\r\361<3\225\315<\246g\032\275*\360\324<QQ\233<\"\351\006<\271\3323<\302do;\314\245\226;\347\245\000\274\360g\220<\355\031\246\274\325\3543=\203N\206;\215\nm;\3279N\274:4J=*\352\320<k\220%\275+\276(<\236\006\243;\373\023\023;\032\014\350;\326Q\001\274\246K+;\241\241\314\274=\374:=`m\375\274P\250*=\030P\306<L\302Q<\367\321\2649\271M_=9(\257<\016\343\231\274\240\0255\273\276\010`<[.\205;\214\027.\273\014t\202\273S\245\241\274k\252\314\273\027\240O=$\304G\274(\303\\=\331r\231<g\322\233;\305\014.\273\350\2705=\341\034\307<\036\226\253\274\013$\214;\233W\331<n\343\n;\210\016\261<@^\256\274~1Q\274\275gB\274v\213;=R\252\026\274h\274L=\334\226\270<J\227\216\273\307\362\311\274\307A\007=\314@\202<\375\356T\274\234b<<\241\024\267<\332\335\034;X\030Y<%}\274;\366\251\214\274}\311\207\274\330M\340<zD\023\275\326\0264=\251#\004=\213)\313<\327\010(;=#\344<m^\261<\1777\332\274\325\304\245<\032R\360<\233\350\237;\035;;:\276\000\313\273*\253\025\274\271\374\213\274Ay\034=\"L\031\274\026\223\360<\0318\330<\010\334\177<L\230\013\274\235\3357=\313\250\n=\326\227S\274\364q\023<\030\346\t<o\013\200\274\217 7<\037\232V\274\025!2\274\226\303+\274\224c\377<[\363\'\273\264L\373<\377\030\037<\324?@<\016\245z;1\200/=\322\254\323<\024\255\270\274\276&\336\272),\004=;=o\274@\334\303;\216\337\317\273D\254<\274\341\242G\274\037.\005=\366\277\356\274\272I\331<](\"<Kx\';\373\305\367;\007\335;=\243M\242<p\333\337\274\036\251\033\2730Q\272<\313\375\333\273\233\004\376<\002*D\274zG\t\274\221@\233\274\254\310\375;AKq\274^\323O=\205\315\000=\235\213T\272\376\3250\273\232\367M=\346\310\257<\223\336\306\274+\370\202;\225\"\023=\371\346]\273\210\265\004=\373\001\270:5C\200\274L\346\275\274\277\0265=;(\235\274\251\340\n=b\217}<(\232N<\335PK\274\257X\373<\265\314\022=\0079\031\275\023\357H<*N\335<\272Qc<%|,=M?V\274\230\234\021\274\202\202\"\274\337h\037<\007v\"\275\223\331*=LX\032=\327\272C\274\037\367\223\274\341\277D=\3326\023=\256d\n\275_\213\201<\207\352\316<\003\303\206<\'r\352<#\256\326\274d\321t;fm(\274\210\n$=\253O\310\274!\212\274<\361\303\231<\363,\376\274p\024\035\274\036k\t=s\267B=\320\031\016\275<=\222<W\\\000=aad<\223$0=\214\301*;\257\332\324;!Z\217\274\244\225\253<F\305\327\274}VJ=\\1\034=\242\303\033\2756\211\254<}\'\025=YE\001=7\325\244;\215\301\301<cSi<\347<\333<\030\005\007=\375c\206<\312\006\305<R\373q;&\020_<\2411\351\274\221\226A<k\362\023=\331\343\010\275[l\344\273\323\2245=raL=\372\357\232\274\217\2757<\004\307{<\312a\310<3\3774=\366\'e\274\373\323\203<{\375\005\273Y\313\215<\304:\304\274\204Z*=\214n\212;\363\225\326\274\216\361\210\274&UW=\350\205F;\357rn\274Z<\324\274\032\266\023\274\240L\277<G\033\006=i\366\317<\036\235\261\271\350\233\251<\373\253o=\363\230?\274u\202O<\351\203\350\274\375\336\243\273\320\266\240;L\363\017=L \367<f?\356\274b\373\267<\356\002y<\033\247\220<e=a=T\265\213\274\267\261\014;\"\025\212\274\253\343\254;\272B\365\274\257\205!=\352\315\357<\377\210?\275\003\211\273;\t\353c=j\353<=\213S\004\274\355\264\310<\345~\214<ZA\375;\337\363\n=\307\256\377\273~\201\232:K\332\n\274\007\340\375<\"u\033\275f\372\006=J\254\371<^\275\372\274g%3\274\344\003@=N\336\242<\317\354\027\275\036&\001\273\362d3<\264\"\210;\371\322\017=\317\357\223\274\225\360\201\274r\\\303\274r\333\237<\31299\275\335\246>=\272_\033<\245\211\216\274H\323\333\274\001\2040=^\367\337<\033\316\037\275\340\263\211\271E\317B<\223\262\314;\227+/=3\213\311\273[^#\272\312\036\367\273X\240 ==t\032\275\2275<=\020\021\301;\203 \236\274\204J@\272\001\224\323<\300\203C=\267\263\037\274\211\260\336<,k\320<\352\220_<6\344\016=\343\351\244\273w\371\242;\'n\316\272=jD<\331=\021\275\\j\033=\3263,=\322p\005\275\300:\212;\',8=\314\243\\=G\366\027\275}^\271;\216bo<\300\332\002=/\214\353<t\027\301\274B\364M<\374\272\267\274\211\2671<1t\007\275\364\264g=T\376\331;J+@\275\301\014\033\274{\261<=#\321\024=Z\363\000\275\003Ar:\210\330\202<\341\266=<i\n\035=\310F\205\274\245\\\225\274k\324M;m\344?=\264_\264\274 \007F=\261\0377<\031d\002\275\023K\243\2734\330X=\030\374X=\370\331\204\274\021\350M<`u\026<\321\376\004=\250\326\027=\236UL\274\034\016\023:\374\315a\274P\200\261<\2012\003\275\320\2747=\3322\242<\227\201\032\2757\253\273\274\200\316\t=\247\217%=\372*\005\275\222L\200<\336\002\252<\014\364\002=1\275E=\211\257m\273\227K\277:\344@S\273\375\226\002=\250\030\370\274\026\373D=\252tG<\332\3051\274\270U\303\273\324\333\'=~p2=\214\027\315\274[\306\265<\370R\231<\262q\000<e\243q=\317\350\031\274!\350\006\274\256@\027\274\202!N<\210\200?\274\275.\335<Q\375\334<\212\261\324\274Z/\t\274<\330h=^\340-=\232\375\r\275T3n<@\331\253<\363\205\316;\000\362I=\266\252\272\274\222\274\267\272]\302\364\272t\315\377<Y\376\357\2740\317\370<E\t\004=\001N#\275h\'\264\274\014W!=9\361P=\265\256\005\275\267\237\267;pA\365;\376V\365<l-\004=M\327n\274<sn\274S\360C\2740\212\371<0\343\307\274\001\354D=\234C\364<I.\271\274\200\303\210\273\022J\026=\255\371_=P\231\016;9\265\311<\313f\224<\035\304\005=VJb=\302\\3\274\314\177\340<n\255};j\253%<1\030\301\272\213\350\003=\252Y\337<\212\300\004\275\304>\225\273\240:M=E\005\007=\242\301 \275\224\255B;\340c\241<\277I\223<\324\2717=\231\226)\273\245\0137<\227\2619\274\273^\331<\266\326\346\274l\301T=Dw\303<i1\257\274\340n\200\272\037\311q=\244Z\035=?R0:\303=@<\341x\234<\305\216\271<\377bo=\346T-\273RK\262;\367\342\022\274!\377N<\370<\005\275\220\264W<.\221\321<\324+\344\274\276\241\361\271\244\031\027=\016*\021=\252\372\001\273\352ul<u\242\366<\r\300\016=\335\3053=\031\335H;o\3304=\234k\025<\026\313\315<\271P\313\274\346\234\204;\336\364\306<\276&T\275\266H\005<\227gZ=\363\261\311<e\323R<-\357\227<U\375\345<\373\233|<\'\207m=R:a<\373:\256<\263c\345:|\262\267;\2445\311\274o\210\034=\300\364R<\205\227\254\274\203\322\014=\214^\005=\014\331\300<\356\306\306<\375\032\201<\371B\241;\366y =L\225.=\342.\022=\277\277\007=\366v\017=\2103+\273|\025\300<uq\002\275,\006\237<Oi\014\274BD\262;\002<Q=\"\367\377<\265\\\337<\371O\355<c\233\006<\212\314\031=2\324)=\025\360\305<\214\001\353<\256\307\004=o\n\246<\213\352\230\273\357g\306;\251\'v<L\016\211\274\374\010\265\274\360\315X=\t7\354;\262\325B\275\023}\245\274J\345\350\274 yU\273(\211\376<\334GP\274\311\227\304\274\024t\222\274\267 \220=\nS\327\273\202\355\000=|o\014\275m,\r\2755\370\205<\245\210\016=\303\274\254<\254l\017=\023O\352<\245!\000<\264\261\022=\202\257S=\367\205*<Q\267-=\017u\256;-d\204;\272\275\215;e\375\250:\321\304\030<L$\224\274\300\005J<\204\004*=_\205\332<\r\310\003<\254\032\361<\2418\306<\241b?=\037nj=\342\035\366<\356\007\002=\004\3544\273\307\025\374;t\261\266\273\343\271\231<\001\245\304<\353\035\344\274\205]\036\274\366f\023=`s+=%/$\274`f\343<0\307T<\304)2=\035\226\005=\250\\\314\2731`{\271\2744B\274\225\312\231<\271\331\234\274\177s\372<(\002\355<\342\346A\275\316\375\205<@\016s=\360\003\220<\333~L\274\027_\304<\367\177\236\271\265\347\032=\347\222Y=\337\003\272<\004I\366<\265\266\245\272\2024\r=\372\201l\273\2749\'<p\'\331<\331\322\n\275Q\027\276<\371^4=*,\213<\215\265\324<W\237\231<\253^\225<o:O=\".C=U\005\003=\241\352\037=m\245\232<\257G%=\211P@\274>4\276\2720j\375<\227\344\361\274\021\010 <\324\323\027=4\256\303<\014k\231<\036\331\036=\177/V\273X\356#=\035\272p=9\024\312<\036\005\026=\272Ba<r\274\274<\311}\261\274d|4<]\313\312;\301\306\371\274\014\024\021\274\023\2500=\3054\332<\264B <:H\332<\324\250\310<2\364(=SX@=\364;\020\273\026&\356;$\225\010<\212\240\035=^bh\273\237\321\226<\235\0227<!)\325\274S\000\303;\336\030\r=\367c\341<\'\373o;\224o\026=\\W\031;\r\215==J\2220=\322e\014<\266x\330<\202\212\216:\\H\333<\346\013\335\273wc\007<\373;\202;s\345\322\274M\n`\273\272~n=.\274\020=6\213Q<\365\340\326<\242\275\243\273\013\351\r=\366\233L=C\020\037\272X&\037<\253 \033\274\204.\305<\352B\231\274L\350\004=\000\277\336<7\031\010\275\366\024\227<\335\3777=\024A==\227\350\021\274\375\305#=\366t\213<i\272[<\305A:=,\271X<\314a\213<\265\247\257\273\312q\372;^\3452\274\334G\003=\225\2636=\202\227w\274\312+\263<\345J#=fX/=\264a\005<1`\002=S\347\266<q\235\231<\353\301\202=*\211D<o\301\020=\200\256h<\316*\350<\306\212\377;\212\264\010<W\354\330;\226:\262\274\210\027\301:\005\234E=)\321\034=\301og<^\n,=(\345h<\r(0=m\2030=\017\226R\274\275\027\340<=\353:\274O\353\340<Ey\211\274\002\335\302<\267\362\277<\004\023@\275\225)N<iQP=\203=\366<`\221\005=F\267\362<D:\363:\017d\365<k\023\202=>\321\371<!|\303<\361q\207<IK><\360\202\352;\371\324\262\273m\346\363;u\207E\274\361W\270;\363\301\003=\365\257\004=\220\255\241<\267\350\210<N;!\274i\365\374<^\221\207=2\321\226<\351a\210<\371\232R<?\223*<@k\312\273uh\324<\262}\272<\035\203\013\275\266\307\255<Wa\253<\344\360\004<r1\316<d\250\334<\316@\211\274\227a8=\010\203H=\213\266\002=\320\210\031=\314\343|<\331\202\246<\225\243\314<O-\221;\272Z?\272\323\230b\273B^5=\020D\031=\020g|<\2236\331<\362D\302<(p\304\272\347\177==\223\r@=\035\356\206<vk\304<w\307\000=\305K\246<\0100\303<o\351\206\274O\212\030\273\200\305\213<\t;\364<\211\000\320<t\033\273<*\304\335;M\2248<\014\256\275\273\004\251\364<\344K\032=\243\233\013=\232\030\004=\267\216\302<\n\207\216<\232\273\233<\345\300\000\275\311\337\273<\251r\010\2730A\014=>\214p;\n\360\354;\245w\246<\250\326\305;_\373c\274\000;#<U\227#=o\304\036=%J\022=\250\277/=R\216\266;&[\333<\232\244\205\274\017c\256\274`|\002=\241\0330= \216\016=\032\323\212<\236\263)=F9\354<1\016?\274@\271&=\263\217(=\353\033O=\202\206\320;Z]\023=:C\030=qZ\013=\'\357\231\274\325\0308;|\004\261\273\3079\204\274[lK=b2\\\274:\216q\274\024e}\274\342\3519\275\026\371\210<6Y1=!D\273\273\027\374O\273%\312\200:\334\323d=wo\341:<t\033=\261\302C\273Z^\353\274\326B\003=\323\223\344<\201\373\347<\376\310\010=\370\352\367<\362\273\233;h\0323=\270\036==\022\375\371<3\004\327<b@\014=\276tJ<\022\033\226<nf\233\274=\355\252\273\334w\277\273\322#&=8*5=\241\247\227\273\354,\026=\016\244\241<\266\326\360\273\261\021\032=\227(n=d\001\217<\307\267\323<_\372\375<>/\033<\221\206\t=B\001\363\274d\373\323:\362\014\375\273\274\364b<\263\352\267<G\332\000=\270\265\003=\0245\327<\325=\255\273<~-=\365\253\030=\300\234\334<\233\350\n=\255\363\272<\"\210\013<\252\227\003<\262m\3477\033\214\322\273C\307\203\274\324n\204<N\226\330<xe\203<\265\243\305<kb\222<\346\277\224:\341\267\267<\365\214+=\344$\341<\023\240(=\027\224\014=\274\2138=\335\335\221\273\265\nf\273\210,\212\274E\375\206\273|x\037=\000A\001=\363\266\311:\037\222\323<AN\304<\020E\271\274\223\251Q=\022\323m=\273S\243<q\231\212<\266\r!=\256F\304<q_\007=\274m\236\274O\027\263\273\276D\265\273:\267\006=\337\244\241<L\255\260<\r\236\225<l\230\032=Z}\215\274\0065\001=4\225\207=R\022\227<\276~+=\013\273\362<@&\035=t\234[<\373W\246\274\004\334\251\274\255\216\033\274\273`\323<\3252E=\234\265\024=\037\337\354<+\260e<\222\311Q\273a\0344=^\242*=\024i\346<\223\231\350<f\355\246<\254:\007=\355\334\250<\3730\250\273Ns\213<6\355\253\274\327\240\r=\035\314\003=B\276\346;\327\254\205<!\242(=\303\251\340\273\001\215}<|\361u=a\310\347<\030\335\211<@\256\257<\300\215\017=r\225\372<X\021\204\274-\250\"<\331\014\030<\276_\311<\326\374*=\320\037\241<\343\335\330<\364E1<\354\265\213\273\233s\270<\376\020T=FI\230<\225/\217<B i<[x\212<r7\005<+93\274\323\246z<;\327\\\273\300$\343<@\341B=\0020\010=(\331\032=\325\026)<1\316\262\273\245\324\335<OES=c\260]<bJ\254<\002\231\247<\220\342\032<\227\3726<\217\336\t\274\265\214\234<\017\r\t<\2228\324<\200\203A=w\201\345;c\013\032=\327\354\346<\276\312\250\274iD!=4{H=N2a<J(\"=X\024\221<\310r<=AI\266<\246\200\027\273\253E(;\004\237\351\273\313q\007=\347V\037=\250U\215<wi$=\317\372\037<\':L\274m\006\325<\275\2766={|\332<\033\366\365<;\330\260<\261\336\260<\245\351\226<\342\267\016\274\031\372\\\273\234mt\274/S\010=E\307\007=\340:M<\226\350\342<C\014\361<\234\225,\272c\035\313<\335Dq=\331N\001=np,=!\001\343<\345\266\210<\377\327\340<A\241^\274\317\031\030\274bi\n=\340 \343<\343,#=Q\237\270<\357\360\017<]Ro<\241\347\017<tK\322<\225\273T=4\365\330<\201S\233<\217\222S<$\266==\214S\216<\301\364\231\274C\215<\274e\341\232<\371\207\354<\0272\365<\352W\322\271jp\256<L\007\314<\241\"\261:\245\331\313<\245\013+=g\311\033=\346\025\235<\263\251\246<]\255\313<M\313\026=&\233\233\274\034\303\242\274\005\361@<\005\032\000=}\354\362<\315G\275\272@\324\323<\217\277\212<G \300\274\250\265\024<\210\306N=\203)\365;\020A\341\273\340\231X<\375\253\374<\361]\355<\036c\217\274\\\306\036\274`\001\206<\314f?=B\363\235<\013\002\265<s\224\231<\377n\250<\006\036\270;\250\n\035=\035\205\n=m\262\355<\034\2369<\363\274\307<\240\0318=\363\362\023=\225\210Z\274lD\035\2748\237\366<\353%\031\270\n\t\313<\351\200x<lw\215:\327\306\222\274%\205\244:\222\254\017\274z\362\026=\315\331[<\364(&\273^\200\215\273\352\340\342<\322\007\255;\336)\247\273\324,\026\274\204\363\333<0\302Q<\35502=\331\335\230\273\207AF<\006\2548;k\266\256\274\362\242\000<\325\"\216=jw\307<V\263\220\271\247\221I<jZ\360<\"\323\030=\003\210\376\273\361\371d\274\345xg<qK\237;\227\237\301<\032\342\226\274^4\247;S\302>\274\215&\033\275\006f\221<\206jQ=l.\025<\276\305\323:\334\361\240\274<$`=u9\266\273<\255\342<\312\232\327\274\355\262\303\274\332\371\022=\204\363c<\245R,\274\264\322z<Ys\007<\275\346&\274*\243\326:\257\225E=\372\273\245<[\033F\273\302\204\322\272\311\315\023=\337\202\370<5\201u\274\265\202e\274\366\271\003=\017Z%=m\255\366<\206\366\312;\255\201\020<\333\311\205\272\350\243\376\273N\231\372;\\\260I={f\241<\360\357\336\273\315\251\'<Qc\360<{\271\003=\313\236\262\274\302\341\311\274\316\000\023=\300\006\001=\302~\021=\3324J\273\201\366\335<\3120\240<\016\312\262\273T\302\021=\244\331\\=\377b\244<\277\353\320<\245F\036=-\2706=\244X\270<\210\236n\274\275\036\331\274\372\037\241;\353\202\017=P\250\023=\233\355\026<e\201\341<\220RS<\206\003\205\274\255\302\014=\036>E=5\351\237<\302\027\300;\022\002\335<\027\037\241<\360\'\254<\363(\264\274\222\274:;m\031\231<\330~\373<\363:\007=\372\334\006<\270\2401<_.\237\273}W>\272\275\327l<\037\035\201=\246\254\027<\260Rq<\336q\212<ax\037=\277\275\364<XUx\274\264\006B\2744(\'=u\023\032=\235\331\200<\327O\243;\273\262\233<\373\332\374;\235\302\224\274\323\034\342\273\322DH=\241c\245<<F}\273\002\025\277<\367\245\270<\360\310%=\233s\231\274%s<\274o\331\356<\271\370\005=H\005#=\016\353a<\237\303\"=\030\205\350<\267\006\367\272&^}<\275\032\205=L\323\221<\270\371\273<\\}\317<\302 \357<\"\315E=\367\251\232\274\317\256b\274L\245\267<\220w\000=\317M\005=O~\024:\254d\337<\236\367\332<)\347\267\273\226[\351;\364;G=\222\355\022=\341\332/<\031)\036=@\375[<\303\250p<\245\252{\274\031\030\330\273)\326\272<fk-=\202\n\006=E\307o<\372\303\250<JJ\257<]q\"\274\367C\270<\245\316+=\312\304\300<-\210\344<\003\350\200<\371O\002=\304\000\335<\027\r\363\274Z-\222\273[\3137<(\001\376<2L\356<M1#<\347;\210<\357\232\357<n[\342\273fC\226<\250h\215=\230\362\000=\247l\033\2731\221\004=\245,\237<\340\213t<>\376\0077*\007f\274lV\374;6\340\024=\252\200/=s6C\273\3374\013=\260\274\004<R\375\265\274\343M\232<\306\241?=K\036\201<\373\003\247<\343\202\340<\0356\023=\333!\002=\262\022\267\274b2\010\274\302\261\216;\336\203\335<P\311\367<I\025};\016K)=\n?\013=\264\2121\272\323\020\211;\350\200J=\3528e<\177\206\t< \317\262;\275Z\277;1\267\006=\t\024\237\273\361\312\221\274\216\360\346:\266\332\037<\342%\375<\252`\223<\276\250.<\240\272\211\271\014&\317;\231g\223\274\032\314W=Y\326\236:\033M\253\274\341\202\322<\006\352\253<\034o\320;9\216Y\274\177\270k\273jJ9=\254\330\034=\244\352\364<1{u\274\246 \320<?\306\254<s\302\215\274\224\026\215<\335\341\026=X\334L<\263\277y<i\266\322<\261\210%=\\;\274<\013C\273\273\217\214\236;d\212\240<Z\351\247\273\004t\r=\231!\302<\222\006%\274\016&\342<$\205\356<\204\234\370\273fI\252<gb\314\273\027\'\000\274\211h\036;\214\t\363<\360\010~<\034\006\022=\306/\351:9or<\374\262\'\274\240\267\201<\305c\303<\026\025;\274-\247\323<V\021Y<\033\244\375\273\035\025#<\001@\360:3P+:=\3005\274\356<{<\371\360;\274hw\330<gz9<\307\302\376\273\\\365\234<\326P\032<j\355\010<\324m\006\274\352\271\233<W\273\360<-\362[\274\215h\t;v)\245\274i\214\023<\244\331\255;\374{w</0R<\272.\000=\030 \001=yT\r<\344\346O<\361\303Y<xe\355<\001!\343\273\220y\261<{\"\377<\236\247F:h\034\035=\250\217\217\274f@\007<5\245N<-x\312\274\247T\225;\010\3529=6k\361<\242n\003\274\315wK\273\207n\201<U\217\003=o\341\266\274\006\267\225<mn\023=\026c0;\302\206\263<\212\020_\273\231\323\001;\233\027\232\273[Vd<j\021\342;P\200a=\303\030K<\325\347\221<\n6X;\026\"L=\267\t\t=\355\3357\274^\300\306;\022\370\364<\274\266Y<\025B\371<\214}\010<\240\2503<\307PB\274Eg\003=\215\022\252\274\224\277\214<h\223)<bo\343\272(\023\263\273\321o\307<\036N\313<y\231\241\274\373\\\243<)\220\001=\241\372\202\273\315\227\240<\336;h\274J\032\351\272\200\207\254\274\002\221b\273\207\346\024<\362\360o=\367d\334;a\355\201\274~\030\256:M\351\030=VG\014=b(\261;\237\314\251<f\003O<\333@\360\273\357\205\362<\366\360\373;\004\025\351;Zo\251\273\2224{<\306-\203<\010\372\365<+\031\247<\261\2347<\254\004\302;?\211\274<\226\376$<\304|\250;\213\326L\274 \030\030<\333\375\353;\360\200Q<\375\246\301;\002\214\214\274C\320\261\273 \261\001=\257\373#9*\3244=\275\276\225<\302]H<@\235\237;\332%\235;G\270\210<\327\246N\274H\214\350;{\375\263<\346X\02693\2227<E\257\332\273\323>O\273\221l\307\274\203\307\364<\212\255%\273t\314!=\315\342\213<gi\270<t\007/\273\321\337\001;\310\017#=\370\326\276\274\220\260\270<\2174\003=\320\375\344\2729w\276\272p\271\006\274\"\236\027;X\234\272\274\234\214T<\340\372\003\274O\325*=\340\253\004=\216\224\235<\025\302\273;\020|<<\025x\257<gs\217\274\024,\213<r\351\213<\006\234\'<\365\342\246;8}f\274\342zm\273\321\371\3239T\340h<\036\270\026<\nx7=\333\306\r=\022\'\272\273m\246\013\274\030\222\376<3\032\366<\247\014\273\273\002\362\260<\204\023\356<\331O1\272h\330\371\271\372\256\267;\"\200)\274\322\304\213\274\373B\201<\252\254/\274\031\026\365<\230\221\221<\336\273\321<sy\266\273\372\036m<K\374\010=\207ld\274;c\271<\343\263\367<\216\0014<\325\001\332;=i\335\274\240\370q;\307\323\205\274\330\317\312;>\031\237\274C\346B=\245\374\207<G/}<\343=b\273\334B\300<C\273\275<Z\020\227\274>5G<NA!=\267f\267;<\355\271<D\245\221\274i0\235\274,]\326\272\222\215=<\205\271\216\273\370F\021=\207\025\241<\220Z\207<$Zx<\033&\307\273z\216\250;e\322=\272\0357\347<\032G\016=\023\024\231\273\271\314\024\271\331^\347\273\204\350\336\271\263\3537\272Sv\003<f\026\364;\272G\354<[\222|<\307:\354<=P@<\221b\235<F\034\003=\221v\236\274`\310\005=@\304\314<\357a\025<\013\252\251<C\300{\274\244\365\352\273\364M7\274,W\204<\311+\272\273WH\003=\253\321\376<eu\026<m\016\234\273\300\262\325<0\221\003<R\366:\274q\373w<s\363\341<\n\005;\272\300\234\221\273Jb\325\2749\376\252\274\200T\031;\362q\227<)*\221;\267E\037=\322\003\201<\272.,<\331S\025<\207y\261<\027\n\002=\266\362\362;2J\363<\'!\343<\377\356\305;\360\272\267<\t\211\221\2732\000\330;[YW\273\221\276\364;\374\201%<\311.\340<f\2424<\352\344\247\274)}{\273\350\275\310<\361g\025=\231\356\241\274\343%B;o\207\006= %\203<\325?\323<d\017\214\274\036\371J<6\200\031<\272\262\216;\255M0;\225m\024=F\223X<5\312\360;\356Q\034<\224d\247<\277\2228=_wS;%\'\327<\370\361\365<\221\344\271<Aa\352<\\7\301\274\025.Z<}\330\220;`[\321\272\005?\315\273\375\213==\361*\364<\254l\312;v}\204<\343\265\200<\211\201\343<\374=F\274\310G\007=\341\266\272<\013\2369<pU\304<\036\027>\274U\272\035=+0S<\350\0064\274\'W\374\272\233\037)=\335\'\n=>\335\010\274\375N\325\272\030\033z;h\017P=\276\370\223\273\3202\006=.\302\n=\343\276/\271\375\355\260<~\252\340\273$n\240\272D\251\277<u\253\232\272\3708+\274\306\212 =%\035\006=\253\254\362\273Q\"\306<I\221;\274\243\032\373<U\027\333<s\\&=#I\033=\027\\\243<5=\241<%p\233;\031\226\311<r_\202<\346Rd8 \316|;K0#;\277\357\314<Oa\235;\315{I;\301\314\332<\273\236\010=\330~\260;\336=\312<y7\244<\274T\303<\266\211\323<\3459\255\273\224\225\024=\365(\257<\303\315@\273\233,Z\274\036\220\002=\357\025@=[\006u;>\313}:3~^=\337XI<!]U\274ER\255<d\243\205\272\032\010\216<N\323-=\202\326Z\272\376q%\274\321\241^\274\014\371n=b\275\252\2744\014\336<\351\007;<\030\376p\274g\2601\272\025\272\252<\030d\366<\377\375\213;\253\022\346<\224\330\365<X\226\335<b\365\017=mmZ\274\210Z\006=\252>\257<\224\242\213\274\271\200\347\273@y\020=\016\032\004=\321\227v\274s\261\227\2734%_\271\364\t\021=a\372\302;\004\222\025=\271\0219=\2207*<\273xK=\221#Y<\271\030\000=wl <\226\'f\274N\345r;@\224\017=`\"9=\224i\202\274\317\355\227\274\347\235\266<\030\345\304<$\374\341\273\275\247\327<\275\0339=n\207\215\272\370|\334<\206@\264\274Mn\223<\227j\013\273\356\361X:bc\243\274-\036[=\242\225\204<\275?\241\272\3719\214\273$\216\313<\207\250\035=\332\024\225\274\270\343,<Y\204T=\r}c<y\371\014=}g\374\273\202\3547<\254\027\265;\240~\201;\206\030\226\273)\030f=\230\000\205<0\020\243\274\004GW<5\032r<\267\372\321<\2347\247\273\326\325\027=\016\326@=?\363\233<\253\033\016=S\363;\273{t\361<\314o\314<g\340\316;\271F>:a\365\007=W\315.=\027\325\004\273\372ID;,\346\364<5\357\355<\277o\322\273\220A\036=\351\351\354<<\221\222<I\216\031=\245\265\260\274\273\236\266<\266\033\277<\246\343g<E\233D<bq\366<,\007\r=\301m`\274\244G*<x\3366<\330\247\345<\2519t\274\2007\255<n\327\360<#-+<\024\210\234<y\333\353\273P!\202<g\r\275; \027\250\272N\377\232\274B\3214=\341\207|<\301\351\024\274\271a\306:N\275\275<\215\205+=+*\201\273\375\362\003=g\306\024=\331\273\224<\311\240\023=\225Cg\274u\256\003<\341x\222;\333q\250\271!\257\200\274\334G\005=\206O\000=2\276\252\274\021\230\271;\201\310\235;\247V\r=\372\017\262\273I\\\335<\356\273\'=j\240\256;fJ\003=\212=\221\273\226E\027=\325\334d<\200\312k;\"\363\267\273\3767\315<\321\221\031=#\345\207\274\233&g<\211\277<<\314\273\004=\342\366\0219\tm\272<\342\226\365<\276@\023:\0309\323;\\\216\2369\234z\217<\345\026\r<\367\237\240\273\323{\214<\320\237\212<M|\334<\320k\2109`\333{<\201\243\373<^`Q=\311\214\025<t\204\"=\345\256\033=\251\315\010=\374u\005=\216\215\202\273sH\t=Ol\021:3\271k<6:V\2742u.=\2506\002=\017\307\313\274\243U]<\377\334\002=\234\247\022=Q04\274\326\013$=6F\352<)A+<8\260\331<yw\322\273\370e\232<\225\007\211\273\274yB\273\321J\036\274ulY=\272\357\"=\372\262\240\273*(c<B\300;<\3409\330<\366:\217<\335\226\207<\212F\013=\020\013\321<?\364?<\243\264\377:\262\247\030=Q\330\342<\324*0;q\367\265\273MU\247;Q\260\006=\230\320\235\274b\246|<\311H\226<\224Z1=o\340\301;\020\026\255<:\2329=\336\305\353;CmD<\252<G<\023\205\203<\'\'\206<ID\026<\337\346\220\274u\005\035=lt\000=\022\245$\274VU\016<_/\203<\230\004\002=\307\374\346<I\230\275<\n\337K=\310\271\244<\252*\274<\027w\005=w\361\214<#\217\246<\314\260\211\272\236,\221<\021R\253<\223:\265<hB\\\274\221\235\223<\316\013\232<B8\273<*_\265<\027\000\020=~\'\251<#\334(=DM\366<\204\325\351<\254\315$=\277\371\243<\024Q\206\272[\000\217\273>\333\004\272 ,\n=\236\311\225\274&\200\036<<~\027<\0037V=\234e\224<]\205\034=/\026\001=\304\242;<\377\"\267<\323\351\373<\327\226\307<\024M\317<\227\312\222\274\323\022\200\272\357\256Z<\24061=\247\364\004\274f\031\037=\333\233\031<y\235\362<~AQ=\376\312\333<\1779+<\265b1<\030y\000<\370{F=\010\037\014=c\304\347<\262\366%;\264\257e<PA\376\273\023r\355<C{\214\273PY\201<\242\264\206<O\254F=\262\360\017=\363|\021<\333u0=\313\017$=\215\004n<\213\350\326<\206>\307<\276t\347<\333!9;7o\021:o\204k\273W\331\315<e\232\200\272\335\324\022\271\341\"X=\262j\225<z\221m\274\245\014\273<Q\370Z;\273\242\375<e\331\220=\301E\030<\026%\202\273g\301\365\273Py/=b\357*\274\264!\221<a\006t<n\211\022\275\r6/=.\356\324;\312\374\001=\035T\034=\027\267-=UIX<\035\2575=<\276\177<\024\324\362<\327\n\035=\315\315\300<\370\007\341\274f\031\333:\365\261\225\273\013m\026<\364\031\252;/\211\013<\247\013\311<\010\036)=\344\323\023=\327{\315<BM\264<\365\030\014=z\3543=@\305><A\031\242<k\025\266<y\037\243\274c\245\021<\"*\002<z\350\351<\010\014\256\274s\374\225<(\355\270<)\355\326<\373\3773\273s<\001=\205\232\036=\272\351\322<\\\353\030=\251\313J\274\366\250\363<\330:\254<Qu\236; \354\251;\377\322d<^\200\026=VY\373\274\330\000\260<j@\314<m\247\331<)\037\257<\332\244\275<\300f\307<^G/=\247`&=\035\333\276<\325\"1=mEd<\303\010/<\345:;\273T\373=\273\320\364\307<\323uu\274\354\024\224<\021,\215<\301\236(=Q\337#=\'\000\212<\203\203\321<\300\376\276<\270\263\374<\032z\370<=\027\361<fK\313<\371\023\355\273Z\022\320<I\263G<\355\036\304<B\2010<7\364\250<)O\203<\273\2212=\370\024\n=\374\267\310<\224\003\243<\356\260\035=\210\n\005=\346\334^<\271\3610=\353r\360<\245\210C\274\364;\202<\251\251\243;\3558\372<\216\260{\274\317\242R;r\005\306<&\316\035=\231\020\345<\213\316$=\026\261\235<k?\004=\236\342T=\252\016\260<8TO<\202\367\372<\240\254\245;\037\205\t\274\225\364\024<F\377,=\022\212\t\274\245x\027=\367\031\301<\"\326B=\317\346\310<\255t\371<U\304\273<\204UH=BQ\035=\256\232\031=\356\257\247<_A\323<\021\353S\274\263K\337;\006\366\300;`\254\007=*h\027\274\374\267\004<\005l\300<\032$W=q\013[;\355\'\255<$\022\000= \303\002=\033\251\274<\312b\031;\270k\027=%\340\300<\216\233\325\273\226\226r<*\233\234;\204\0164=k\346;;\264\327\275<\343\276\305\273\367\257E=\351,\274;E \020=\247tD=\203\037\374<hI\313<\331(\264<\304\322\032=.\336\205<q7x\274\210\033\014=\251\007\265<\363!<=\007\010\357:\301\032\213<#f\341<\332\320\352<\014\347\260<\354\032\223<\346\223\033=\317\367<=\231\032$=|i\344<\362a\001=g\352\326<\016\346\357\273\001\221\333\273\326\'\030\273\255\361\000=@\263\216\274Ov\025<W\264\313<\377\201.=\n*\244<j\366\363<\342\275\242<\263C,<\323h\r=\r\337\356<U)\r=)\274\031<T\301v\274U\001\205<O~\354\273m#\007=NN\215\274\367\203\232<Qq\244<\333\342\311<p\350\221<H\317\013=\005`6=\322\350\t=\271\370\354<\221\360\001=C\030\347<i\2409=Q\2504\2746\335\024=\373\316B;\'\334\334<\206\203F\274*e\372<\232\370\323;\000\314A=\251\n\020=\266\262\001=%\036\251<$\331\200<\354\2669=\000\322J<\304\327\003=\305\347\227<\244\357\235\2745\374\207<\362\025\224<\256\270\374<f\'|\273\207\375\003=\324\273\376<02\346<\332a\033=\024\352\222<De\035=\235\266\372<(\364\376<rs\t=%q\003=\025\234\340<\351>J\273\022\317\227<\016\346\316\274,W\325<\016\344q<\001\251\201<Y\242\273<\335^\201<7KO=\376!i<_\370\304<\360\010\327<U\330\270<^\201\313<g\027\000=@\223!=\263$[\272\323\017/=_\361\356\274e\014\252<I\t\272<\371s\034=\331\017\010<$\341\362<(\275\001=0I\344<7\032\303<\215\033\365<\223\244\317;\232\036I=b`\364<\265\207\017=\337\356C<\373n\350;U\014H\274\241\022\203<$\233\325\272C\314\027=n\321D<\207\222p;fv\037=!\270c\274!\2710;7\324y<\241\224\326;=\202\000=\356b\315<G#\025<\004\014\306<\244\240\322<e\260O\274\224>\331\273\353\243d=JR4=\006%\275<\273\013\027=9s\025=\262\327\337<w(\335<V\335&=-;\206<9\336\003=\360\010\230<\354X\'=\211f\234<q\273\021=:\257\270\274\030\002;<\347\302\206<\302\361\306;\034\342p=\347\261\327<\006\277\236\274F\364u<\300\242_\274\355Ey<\177.\265=\221p\235\273V\3432<\205\014\273<\\\373\025=R\341O\274%\302\321\273\\\367@:\235\017\342\274\277\332\340<I\347\274\272M\\\344<\251\323\374<\177m]<B\367\206<\266:\372<N\032\317;!\r?=\033\343{<\327\310\027=\251\234t\273\"\330#=\361\364\214\273\370\274\222;\005\2203=\330!\240<O\304\223<\332\316\031<\376\314\014=\316\310\274<W\216\027=\363\205\334<\256p\010=\216\234\007=k\256\001=o\204\"=\330\027\t<q\315\030=\262U>\274|\366\001=\324\345}<\331\352\033=\230W\217<\304\315\003=\007\307\313<s:\246<\'\037\305<\312l@=e+0<[8E<\374\244\024=\231\027\343<l\027k:@\236\024=tLR\273\313F\315<\017\326\361\273n?\252<:\365\300<\265\304\004=b\205\036=\345\361\336<\221\257r<\254DV=t\370\276<\261j\227<\211]\300<\262Q\347<.\347D<B\233\364;\252\305z\274j\345\327<\240\r\013<\027\343\023=\371l\204<\276R\361<\013c+=\2174V<ES\313<\203t\251<\265a\241<7YL=\207\230\265<Y3\035=5JE;v\006\213<\234\304\026\274\347\\\331<\354\361\002=D\366\036=\267\301\247;\214+2=t\215!=h\305\306<\201b\352<pv5=\3632\014=NI0=X\303\034=\tyH=,V\213\272\362\373\350<;g\023\275\212#L<\306\005\257<\202*\213<Wn\236;/\225\362<x\0148=\\\nG<\301J\251<\255\317\024=\373\222\024=\004C\254<\362\316-=\255\375n<bTI\274\355D\247<\260T\217\274\230\031\341<\273J\003<!L\035=\300\010\261<=\352\226<\300B\010=m\250\231<}F\017=\025~\301<V\260\255<\257\332G=\310`\002=\357,\003=\3545\363;`%\231<`N\220\274V\007p<o\000\271<mj\035=\332+\352<G\201\006=\357\253D=<\272\003=3G\271<\276L\004=L\2233<\026\334\221<w\264\010=\365\010\037=\t1\331;\210\t\260<\226\223\351\274J\250\225<e\234\"<5\223\262<N\333@<q\312\347<#t\333<C\355\314<\373M\n=\210\334\314<1\264\250;\340\277\300<1\242\001=\3735\r=(\027B\274wC\303<\375\004,\2743\214\022=}t\016=5U2=\337;\344<:\330\244<c\213\351<\0352\216<\027\321\243<IzG=.h\'=\'\242\353<\3300\330<\332U&=Jfa\273\332\322\253<\235\202\361\274*{\\<x\242\013=y\036\023=\r\235|:\213R\260<E\364{<I\375\374<M<\243<\217\312\334<\250\212\330<x\256\022=\t\337\023=\327`2=\0338T\273\262\330\235<\264\241\350\274[\212\016=\2220\217<\032!1=\332\361\251<rT*=\241q+=\254da<g\247\216<+3\004=\346\014\233<K\350\267<\316\330\031=\255\001\354<AUg;[\202\003=q:i\274O\006\261:+i\r=\272\035\300<h\3739<a\325\314<\332\3301=\006\254\216<\024\0347=\0345\343<\020\316\027=\257\000\310<\254e\330<\314M\033=Q>\307:\2031\371<\334z\263\274e\010\241<;<\002<\027r\341<\204\177\303<\256\261\202<7\263\314<E6<<m$\026<\230\302\t=\350\344\037<\326\273\020=\326\2739<8`\215<E<\201<\020\016-=C\233\225\273*E\203<k\222\322<\"\204\261<T\344\320<\t6\335<\216\317\341<\032\255\261<\364\237\271<\3028\337<8\262\016=\360\232\372<\254]\302\271\320\277\241<\263~\236;59\343<Y\373\372\274\371\323<<\324\3249=,\332\004=\013\252\222<)T\230<\'\355%=\331\301?<9\303\322;\317\010N</\377a<\364\243\250<\237N\233\273\021\247\323<k\267y<\360\313\226<4:\363;-\315g:v\347\350<\366<\276\273\277!D9\222\245\002<\226\346\n\275e6L\274]\311\213<\0301\202\273\213\013\\<N\260E\274\220t\020\274.|\272\2741$\006=_\310\363;\3702}\272\321\341\256<\223\2456=\263\341\222<v\237\312<\r\234\355;\205\355!\273.\004W;\352\217\274<\272\026\221<\253Z\002=\234\033\010=\353\327\265<\225\210\254<\300\335\032<d\005\023=zc\263\274\203wj<\022\r\351<\304\311\312<\037\313r=[^\236\271\3074\204<\2422\000=+g\244\274LP\005=\315Lb=\023\005\033<j\026\236<\275R\232;\006T\227<\027\275\212\274\215\367\344\274\316\273|;\256\253\326\273\367\016X<\354[\346<s\272d<\362;\212;\r\245P\274R\220\031<f\220\236\273gk\270<<e\222<\242\005\017;I\267k<\317t};\273\357\177<YV\013\274\326\203<<\'\212\034=\246\267n<\374\252E<\332p\223;\276]\214<\023\376\303< \311\320<\346\016\210<l\2440=-T\225<\2004G9\357\325\006=KB\226<&\001\342<\270\021\213\274&D\024<e\232\010=`<%=\305:\236<\002\263\013=\007\254*=\263t><\243\352\315<\211b\306<\373W\352<\225\0230=Q:\231<O\2472=\360o\240:\010\321\247<\023\331d\273g\352\316<\233\026\000=\345\302,=\361\337\002={\270\005:\200\206 =\251\301f<\013\001\017<\270>e<\335!\331<\226O{<\2450\212<\227\276\024=\375\2637<\204\321\376<\362DQ\274\343\326\210;(B3=\342\210\336<p\363\275<\361\270\273<,!\276<k\217\020<o\257\177<o/\235\273\276\322\240<\377=\317<\3571<\2719\\\014=\237\256\274<\361\0109=\217{\333\273\263\207\244<\231<!=\343\305\024=\256^\312<]\3453<\367\341\217<\025\306\236<\230\3053<@\023\220\273\001\\\010<\201e\t=\244\032\267\270?\364\330<h\000\351<\205\317\242<EF\215\274n!d<\215\331\211<\231P\036=\307d\356<\2311\306<\373\004\006=h`\217<+2b<V\347\010=\240\177\364<\332>\362<\241+\370<\027s\323<\306B\007;\213G%=\314/K\274XX^<\03516=\343\001\253<\266l\232<qB\276;\353\365\317<\376\200O<u\247\215<\026\305\007;\342s\357<\335G\205<\006\374\005<6,w<g\013\3279&\256 =W=<\274\263\236\213;^\236\350<\330\333\031=o$\236<\303\033\215<\024-\213<(o\213<\001M\306<\302w\236<-a\003=jt`<E\277\202<\0271\362<]\273\351;\ne\277<\231k\341\274\2734A<\341\337v<A`\375<\215\035\367;\031yr<\260\364e</]\"<m\177\350<\255d\000=`\027\233;\372\342\216<\024\214\206<<\323\322<p\215\254<C\256\270<Ce\240\274\016J\250<\001~\010=\313\213\242<\005\304,=eu\340;\211\222v<\240\331\242<\237r\272<~\360\270;aO\010=\367l\256<\341S;<\025Z\232<\274\001\301<\270\275\021=\3764\310\274\250\032\221\272S\334\234<_\204\261<\025z\001=[\321\001=\033\023\025=mG\232<\"\232\202<oW\374<PQ\216<-G)=\305\345!<s\246\255<|\\\306\273N\353\377<@f\n\275\254\330O<c\325\013=\307/\020<\240\223\257<\027\361\237:\tOg\274sA\213<>l0<\004\014\236\273j\020.<!\310\016=\033dE\274\377h\265<;\250\276<\261\334\245;\234\306\031\274\241z}:\273\325B=\343x2=\022\354\342<Xp\362<\027\003\211<#\357\"<w\276j<\210l\021<\352\2563=\245\245\220<\003\307y;\262q><\340\261\311;E!\273<\026\327\236\274\301\314~\271\236\336\001=T\355B;\035\265B\274\036\210q;K!%\274\376m\206<[\241.<\030^\336\274\310\245\026\274e\371d<R\325\232\273\232\3737<\272\211\207\274\327?\252;s\\\002=\206\001\276;\307QL<B\027\221<q\375c\274>\222\2709j\250\204\274%*\220;\336S-<*\357\364\273\234\331F<\207\224\r\273\341\245\212:\202\025\033<*\r\022\274?\307\211\273$\305\"=\232\347H<y\346\271<\301\250f<\342_\345\273x\234\214\274A!\036\273\363\333l\274v\365#\273\227\374\016;\315\312\247\273\203\326l\273\3700.<\005r\214<\341\333C\273\251&S<\270\030L=\021|\343:\225 \234<\326\321Y<\203\332\204\274^f\222<\214\2061<]\277\004=o\036O<\231+I:!)\245<\237\024\274\272\354Q\233<\201\334\320<\263\333\216\274\370\245\200<?x\356<F\352\205<\317\262\260<R\267 \273\377\252\325\274\322\323\231<:Ej;\367`\211<ZI\214<\357$\350;)\233\246;\010\007\010\274|\2047<\343\300M<\003K\265\27491\337;lC\367<\275W\022<\233\366\004<\'\3026<\3640\010<\317\226\320<\347(\356\272`\371\324;\365\353\330<\374\323\257<pT\350;W;Y\273\031\322^<\362l\314\273\367b\243;\224\004\215\274\261g\341<\371\272\013=\031-B<]T\262<\204\263!\274q\033\334;JF\256\271\324\234\212;\210\373\022<\225\n\267\274^\356\0279\000;\333\270[h\360;.\364v<\335:\365\274\257\352\340;\274a\035=EK\236:\263b\217<\303M\307\273Q\213:;\233\005\213<g\375k;\213\363\264:\250f\201<\341\353\231;|\366\322\273R\330\215\274|\337\257\272_s2;B\247\222\274U\002\033;\325\016\256<\373\220\216<\310\013\366<p9\031\2748\346\245\274\211\202$<\215\337\025\274\245\225\241\273I\250\325;Ho\250\274\26788\274\025\003\363;\275\306\004\274\354\t\247\272\205\203;<\212\215\001=\035\220\343<|\247T<n\365\003=\313\240\345;\235\002\252\274\014-\010;\270\332\032\273\r\377\201;_\311\226<@\243\025\274\031FB<^\277@;\346,Z<I\221*;\014\r\n\274\246:\031;\304O\"=\214I0<\377\244\252<\037\235\312;\027\237;\274C\275!<\r\362\000<\305\324\327<c\213M<\333A\304;\006V\343;\274\373\306:C\004\327;4\352\355<\t\2107\274}\r\"9\2717-=6\244\254<aS\251<\r\215\225<\252F\302\272\207\013\333\273k\306\335\270t\0036<OU\256<\221\323w\273$\326\221<Y\205\031\273\351\036\332:b\200\210<\362\342\245\274\016+M<f\357%=\r\375\300<7a\247<\365\031q<\357\266[\274{S\347;\177A\206\273\317KS:n@\020=\016g\214;\305\333\004\274 {0\2730\327\236\274\355\375\275<A@!<\222\315\021=-\023\331<>\255x<\204\314\335<\217\355\313\272F\374\327\272\355bJ;yp\213\272\222u9<=\272\231<Zc#\274\227\357\035\274eE\n\273\004:6\273)\305\265<gG\323\273^Q\361<Uo\027=7y\212<j\005\333<\342\037t<`\t\215\273\252\r\347;\036u(\274\0203u<(\216\372<\237\374\360\273\021\245w<\005Z\327\272\315\257\343\273\273g\235<\3322\2759P\232\316<\365v\r=\221\203h<Gt\242;\204Ur;bP\035;8\364\276\27448\207;\214\206M<\356=W;\215\035\310\274\306\331~\274\246\363\230<\033\214a<J\372\316<\231\305\202\274(\360\254<u.\350;Q\002\246\273K\323\276<\202v\300;7\016\266\274\276\376X:\205r\316\273|U&<\334\315\303<j\327 <\005Q\006<\322o\314\274\031\324\352;\200\"\252;\364\255\211\273G\221H<L\233\036=\014R\342;o\303\257<\373R\232<\262\t+\274\376\315b<x$@<\353\023F;\240\223n<\273\316\231:\356\214\020<R\343e\274\343\263\227<5\3630;\034\346H\274\254f\222<\363\231\213<\347E\275;\364\005\315<9%g<c\\\351\273J\026\223\272\246R\333\272\306j\010=\002\353h<\310\"\215\273\321\246\322</\314s\274e\367\337;!N\020=\356\240\320\274\000\214\2119\307\215]<\013\311}<_\031\337<\355\235\233<\031;\247\273\202\334\034;|\'-<q\360\037:\313\035\264<#\324\337;Eq8\274\267\235\303\274\336\263%<\314\343\213<\001\301q\274\245\225\223<Hl\332<\331N\205<g\373$=\257S\227:D\271\202\273\034\336\312<\344\"\314\273\036\340\346<\321r\031=D5\237\273\313\001\006<\326\"\303\273,q\317<U\020\'=\035}\033\275\320\203\301<\247B\006=\023-\333<\256\3618\272I\2566\273kx\0149\212v\371<I\210\311<\316a\004=s\320\317<\322D\233<\331.\"<z\2510<\232\022\025=&\315\216<c`\225\274Q\342P<\217\231\305<\210o$=0\322(;\224\226V\274xiT;\020\376x<0\206\\;\352\220\023=\327\376\302<\020-X\274\215\r\303:B\326o\273\277\034\263; \\\337<U\027\005\275y\230\237<f\321E=j\002_<\204\212\262<\357\271w<\005Jv9\244\245\240<\376t\262<\332\360r<\276\007%=cE\257<M\341\311\273\336\nK<\310\351\304<\225\024\030=\220\026\324\274\336\321\253<\326\255\355;6\337\t=D<\030<\326\337\327;\337\232Y:\206a\017=p\355\323<\265\203\215<\001\261\'=G\213\322<2\221\214;\216\245\254;\005\312\273<\246\362\364<\373\t\031\275R\350\226<B\211\375<\273\020#=&hV;\216\267K<\216\366\261<\212\363\310<\352Y9\274\351o\325<QT\027=\317\332|<\025?#<Pl\204<\002|~<2+\366;\372k\253:\353\336\324\272j\203\203<\334\362H=s\006\351\274U\023\210<%/n\274\234,\204<\016(\225<\206W\256<^\214\000=:\211\213\273i\'\323<gN\223<We\362<\304\301\342<c\001\310\274v\367\206<o\025\205<\346\373\312<\351\231c<\014\356\\<q\271L\274\360\n\244<\316T\254<v<\002=\335\223H=\232\337\245<oB\213\273\210\021\327\273;\254\031=\276+x<\337e=\275\262^\342\272\3460Y<\361\352\342<(>\213\273\317\240\241\272\004J\304;n\320]<\366\277\250\2729R~<\252\335\004=\323\356\323;\316\r\256<\211\226\231;\342c\177<?\322\000<\250\352\003\275\275\240\2309&Q\343<QG\337<\360\202f\273Lb%<\276\003\021\272O\226(<\356\t\317;}\023X<\310c\014=?91<\365?\213<\350\370\346\273\225f\000=_ \013=\261,\241\274\311\014\207;\305t\027=\r\017\006=\3107\240;M-?<\352\224\251\274\252\272\313<i}\357<\024\247\034<1\002 =\243\nn<\372|^<\204\225\t<\355\276\n=I\256\026=I_\364\274\235\027R<\001n\257<\030g\376<,\336\032:\034\336\022\274\031a8\274\310e\326<Z\344\335<%bg<\203\207\021=(\252\370<\323\340\206<(4_;\010|\016=\307[\253<z\023\270\274\206.\353;n3\334;\0312\210<B\n\017<\326\360\277;N7\224\274\363\026o<\267\360\3779\351\201\344;\227\353\r=/\371?\274\274\337\256<\230\315\030\2740\020\304<\360\301?<\031\213\367\274h\266\247<L\003C<5DT<8Aq<\246%\304;^\216\2579\375\023\353<\300-\234<\025\266\376<\326\010\352<@\"\276<\376(k<E\343,;\320N\226<\232p\022=\373\360L\274\264z\222<\3578\317<\230\353\010=\002\367\321<l\035\274;*9}\274\220\334\245<\253\315\242<o)\025=\361\341\343<\026H\244;\252:\211<\252\005T<\034\357\373<\205\207\357<K\366\313\274\342\210\310;\234\027\307<X\275\023=cf\023<9\310B<%\244T\274\020\305\257<\016\315\t<\275\330\207<~\373\357<e\347\027<_\177\027\273\021Mq\273\223`\017;%J>=\2728\023\2756m\031=}\304\031=\337\270\n=@\221(=\357\327\207<\340\004e\274\267\215%=/|C<7E\274<\235\007\037=0\370\2028_\031\021;\326\010\244\273\366\254\221<V\316\253<\375\351\036\275&\177M<\305\265\013=\'\001\'=MY,;\354\311a:\263\016p\274M\313\373<\267\265\232<=\212\276<\201V\033=\373T\225;\242\030c<>\327\202\273z\366\331<\223\2058=\362\346\352\274\222\021\270;3@\001=\3058\303<#S\037\273a\240\263:\242\214\237\274\351<\037=\010\225\243<\363\020\274<\316x\036=\037\016\272<u\220:;0\330\266<<\036\013=\275C@=J\013\311\274\306\211\257<\022\311\270;\223a\255<\272\235\013\273Vb\004<q\323:\27408\372<\262\265t<\302)\307<\217\260u<?\264\233<\027\302W<\240\255\016\270\333\023\002=|\354\213<\034\354\233\274.\335\201:\206\272\327<\203B\354<e7\207<\257\234\333<\373\213\362\273\311\301\014=\025\273[<\271\365\267<Z\241\032=\264\371\256<\324\246\273;\266+R;\352x\330<j\037\025=]A\336\274\025\376\266<9\341\2268\322L==u\251/<d}\343<\t\274e\274\017&\301<\177\375\325<$\220\r=\304\363!=\320\205\372<\362^[\274\314\002\311<\355\007\020=\207\227#=\261\220\033\275^\230}<\255c\216\273\335\023\367<\357w\356;\347\332j<\314\0103\274\256\227\326<\341*\326<\310a]<\033\340\032=\267e\315<\373\231\226\272\326D\254<Z\207\334<\326|\377<\221\001\254\274\226\220&;\331D\002=u\275\006=1#}<\321\264\013=\276-\014\273FfD<\224\272^=\230\377\n<#8,=\356\372\032=C(\036\275vP,=\301\"n<f\312\370<\331\326\"\274:+\336<J\333\303\272\302!\361<q\222\331<\007}\035=(\227R\274\221E3=\010\273\362<4\231\272<\276\031.=\'\n\006=n\247\250\274\030\377\211<\214\212\267<\303\376\036=\r\021\376\274\207\346\302<`,\272;\212\223\020=\370\206,<\214m\007=\025\235\010=J\300\r=\314\220\333\272\2334\241<H+\001=\373\341\225:hf!=\344\314\267;\324\225\202<\343k\014;\022\334\t\274\375R\303\273b6\267;\307\316\304<8\035\225\273\235j\321<6\213\305\274s\036w<\332n\321<]\305\237<\303\210\032=Z\252\016<\304\322\335\274\312\327\373<\371.\276<gGV=\016\001\227\274\264\373\250<\246\372\025\273>\034\005=w\335M<\223\357\023=D*\304\274\377z\256<\350z\365<X\310\323<TO\356<T)\023=\235<\321:R\022\325<>\346\023=7\017\233<\243;\377\274(P\340<\335\232\n<\rt\364<\305\305\035<\216\353,<\263h0;\022\032\'=\016\350\206<\377l\024=\323C\375< \300\352<\326\277/<V5\224<s\252\272<\215\225!=\207\355%\275#\245o<\303X~<<\222\016=\253\000\016\273_Y\215<\023\220`\274\360\037\007=\231\255\002=\251U\026=2\n\022=\212\232\000=\357\3218<\253\223\360<\357<\337<\253\202\033=\225\206\357\274K\254\343<\301<\311<\214\244A=\264j\335:\207\020\202<<\340\362\273\326\343(=f\317(=W\272v<\036g\375<\274\326\'=\1779h\274\276\314\007=\301\020\017=\030\275:=\212\000\005\275\177Y\313<1AM;\253\2749=\3662\203\273\006\010\334<\241\232\r\274\305\220\360<\313\305 =\363\261\177<`\022.=\235\304\361<\275\r\253\274\270#\t=\260\024\367<\274\372&=\235\326W\274\021\235\265<;\305&\274y.\321<\025\351r\272:/\001=\037\361\270\273\277\212\362<\372\007\230<\023\230\347<\302{N=y\0132<\334X\311\273,q\204<\314o_<@\335H=\211V\350\274\332h\217<6qU<\237\312\267<}\334\376;\331?\230<\301F\263\274f\336#=\354\002\004=\355\310_<b\003*=\244\353\352<\013\236\223\273EK\342<I?\317<\353{\276<\2070\204\274\241\252!=\205!7;o\360I=\251U\014<\361&\313<\210\221\222\274\237-<=S~\020=e\267\215;\205\317[=\343u\250<%\374):r\024\375;\355\211\315<\222\002\254<\230\250\322\2746X\275<\355\344\t<\212w\014=Y\322\306;\025\226N<\264\372P\274M\362\013=\305\016\033<,0\030<\360\360A=uD\307<\t\341\006\273\345:\277<\370\314s<mt\036=U?\374\274\005\324\275<e\273\371<V\035;=\204\314}<\005\371\356< \350K\273\203\274+=\007\326\030=\215\r\261<\240\030X=\304j\337<\300\325\330\273\340\347\331<\315E\026=q\\\200<\270\334<\275\247a\010=\324\202\240<@\237\'=\223\341\274<}\020\253<\205ky\274+\334\254<o]\355<\232\006\316</)\020=\225e\247<$\032X;P=\013=.3\270<P\341*=\035H\351\274\330i&=\252\367\325\272\337&\026=\277|\311;\000\027%=\243\316\273\274\372H\217<2\374I= o\235<\337\212\376<5F\243<\221\213\236\274c\367\033=\371\331\024=u\370\363<_\271)\274m\014\362<\360]\206:7\330\254<wZ\243<\006\350\214<\221\032\207\274\213\0052=$\277\357<\332\026~<\253\306\315<G\"\257<\233\266.\272p\\\347<\014\r\336<\334\253\006=\3717\"\275\'w\030=$vY<\354\001\302<ks\212<\000L\016=u!g;*k\030=j\331\320<\301\233\202;$\312o=%G\020<D\006\235\274\204\3108=\'u\210<N\036\034=\252%j\273\273@\032=\333\267\033\274\361&\317<\356?\347<@q\312<\033\334\217\274\376\274\301<\264\341\260<\231\253\246;\322\036B=:\245\022=\225_\345\274\337\241\331<\344Q\375<\000\243\267<\212\264.\274\036\0347=\007U\033\274\224E\205<\005\271\377<\211.\000<5\"\352\274V\202\004=\205\224\377<\022l\203<d(Z=\306c\232<\251\177\246\274\364\260\334<A\255B<\314-\201<\030k\277\274\361\013V<Ir\245<\022]\013=\273\376\335<Z\206\204;\340\272+:u_&<\345s\307<\330)\234\274N\024/=)\300\276<^\302n\274\220\377\014=\204k\023<\316\004Q\274b\341L<O\302\030=P8\232<3\177*<\367\251\005=\335\212\313<\301E\275\274\364\263\335<l\203\267<\325\024\326:\277PS=\201\030\376<P\266\000\273\351\217$=\345C\275<\004\034\341<\361\232\235\273\013\007n=\036~+;0\013\246<\360\304\007=\346\221\255<u{3=\036\3348=\3126\275<6\020\031=F\217\236<\305\205\356<\340v\363<u\025\334<\372\301r<\033R6<\006\010g\27454\311\273\017\355\265\274X\036\010=g\355\211<fd\301<\275\032\036\273\315\337\360<\311<b=\352\300\006;\354\0078=\224;\352<\200\266\303\274\373\2322=\377\0313;0f\031<e\036\376\273\004\344f=/\305r<\233!\'<\021\267\r=\335\345\024=\367L\027\273{)\254<\270\205\022=\251\224\317;t\r\317<\364\306\336<\335r\352\274\263\2702=/36<\340\373\007=\013\036\226;\303\2707=x\3242<C\257,=\3655&=\371\215\014=(\220=\274E\230\010=\271\3764=\222\245\253<\000\364\033=f\317\016=\007\250@\273;\357\354<\366\332.=\304\331\004=\\\242\262\274\234\007\215<#\266\310;\324\354\n=$\2119\273\356\177\274<\327\005~\274D\363\273<\241u\020=\365\227\322;\374\261b=\2645\275<\334_\215\273\370\003\251<\n\005\016=Dk\206<\216\334\023\274\003\030/=\304\333\263\273\355+\017=\241\003|<Vl\256<\252~\035\274\201\004\376<\005\375\003=\370\347\030\273\324\007\320<\002r%=C\337\317\274\303\302>=:\274`<m\325\316<|}K\274\355H\'=\036:\254;K\212\255<O\215==\001\2450=\2041\247\273\335e\257<\265\226:=\021A\016<D\340j=\344\372\331<\370,V\274$\255\365<\206\255\262<\002\001\327<\322\031\001:A$F=\277\377\217;\377;\225<\341hC<u7\356<\013\307\220\274\3076\360<\240\250F=\363,\321;\214\331\354<\235<\n=\2703\351\274\346\242==\225\247\270<\2062\013=\272\324\251\2740\313\322<A9\231<p\367\260<\3313\202<\211\337\330<\210\325\232\274I\327p<\014\226L=\367i\244;\306:F=A\307\316<\214\307\330\274i\367\232<n\027D<W\227\276<:\356\224\273u\243\203<\362[\202;\332)\305<2q%=\310\353\000=*\334[\273\266L\321<\255\276\357<\013\310G<y\224F=\2464\004=\003\255\342\274:a\025=\202.!<\310\220\254<V\325\204;\305\242\016=\257\216\326;4\014\221<\365$\324<\331=\031=h\245Z\274z@\333<\261\2320=\354\336I\273\365#x=<\332J<\372\235\363\274\312\004\036=\300;\371<G\2615=oX\362\273\350\377Y<\326\370\221<\031\373\014=\020\200\272<\255\364\364<%\225\351\273-\'\021=\302E,=\353\356\201<\205\226\317<\0250.=\325\317U\274(i\225<\341R\236<&*\327<\207\320\265\273\267\274\373<\272>\205\273J%\240<\322B\022=\372\300\t=\177<\211\273\251\321F=\237?\301<\225\223\322<\253\275T=\321>\037=fB\r\275.A\035=I\246\253<\324^\r=\263\277\347\274\244\336\312<\231v\346\272Y\216\000=\355\203\345<\356\220\254<P\315s;\362a\254<\333\331\246<\210x\246\273\370\177\334<\003\006\n<{\346.\275\307I;=\207.\302:)\226(<\235}*;\331\253!=\323*\306\272P\002\202<\332\221\363<H\335\010=\201\352\337\273On\277<\013\250\255<\004\034*\273\320\014!=\264B:<\"&T\274\327\253\017=\201\361\341<P\254\001=<\277\302;7\220N=\t\232\375:\355M\231<?G\254<I\247\'<\"\351\235<\345\263A<\342\244\017=pe\251;\275u\211<\243\324\266<%\376U\274~6\037=:\014\207<\356\036\205;Q\216\206<\300z\020=\004\205d<\217\364Q;\364\377\316<\245\230\245<\362\306m<\341s\003=\362.\326<\002\262\367\273\272\307I=\007w\223<u\277z\273Rs\252<\004\367:\274\242\177\203<0\267\331<iJ\035=\353\n\270<\350[p<2\005\022=\373\035\215<\260\277`\272\310#i<u\"\353<\3326\203;az\336<\2519\277<!I\266\274\374\261\271<\223Y\007<\270\201G\273\325\235s;\244mN=\036\377`<-\030T<\363\215`=\206\021\002\275\256\006\337;\212\216/;\304\270\237\273W\2518\274\004F\326<m\250x\274\232\252\327\273\000\251\275\273\342\027\230\272\231\237r\274\366\020\272<|r\325\273@\237\025=\233\214\237;\205\t\223<\240\352;\273ls\002\274i\252n<\232|h<\313\r\022<\204\034\337<(\330\033<1\023\271\272\272n\016=\277,)\273\021\347\000<=dL:8\026\235<\203\205L<\272\3337<HO&=\215\270\344<\033\323==\260\"\t=\375\025\360<\274\017&=(\356&=N\345\034<\364G\313<E!\312<\"\'v<\305\241\031=\264q\244<\201\202\230;j\201\223\274o\226\016=\211\356\214<^\355\253\274j\344k<\205l\327\2733u\207\274CYe\273\322\356\345<v}\276;\n2F\274m\234\"<y\004a\274yR=\274\232\247\212<e\302\364<]&\220<\001\007~<\003/F=\221\014\027<]\216\036<f\257;<\300\345Y<\005\321f\274\333[\362<\224\226\257<\n0\235\274E\347!=\2021T\273\027\314\2769\301\364\274;YO\306<m7\263;\255\327`<;\017\273<\033h\363<\347.k;1\033\235<\254W\360<k \354:5\031\344<\352\003\242<>\365\342;\345u\036=g\371\266<~}A<d\254\246:x9\306<5\235\030\274\022\304w<\303\333>=&\336W<\271\300\202<\005\001\000<s\266\024=\300\323\234;@\277\272<\355\366\251<\026\372\014\274\301.\205<\377\004\270<8;\200<\007\307z<\204\327\326<\214h\226;\316)M<\375f\002=i\347?<\275\272<<f\355\'<\272Z\204<\246\221)<\021\357\350<\357;\211;\232\210\362\273\220\203c<R#v<\224Q\025\274-+?<k\277F=\\\262\006\273\206>\245<\257c\'=\024a\003<\217n\247;\236\216\010<\270u\227<\270\222\r\273\206T\252<\370\035Z<(\201\200\274\215=\346<b\356\n\274\016x\232<^Gq<\021n0=\225,\346:\256]!<3\217\354<v\037\334<2\377\223:\3750\200<\334\371\036=\276\026\267\2733\264\374<\002\362\326<\031\372\346\274=\350\005=\3169&\2747\244\021<~\246\266<\232q#=\366\363\244<V]\254;\374\340\346<\306\rd<m\3567;\2007\\;\004\335S<\217\206\323;S(&=L{[<j\320\233\274\003m\337<,h\377\272x\204\206<\275z1<\350O:=\210\255H<\327\332\30092\026\201<q:\r<\200\3746<x!z<\201\360\360;\257:`;\305\367\036=\204\372\303<\341\343o:5\377\317<\257\236\216;\222\370\271<(\303\234<\341\256\026=\216\013\255<\377m\361<\000g,=\273\365V\271p\301\266\273\375\300\263;\200\002Y<\206\223\3108\221X-=\325,6=\332^\320\274\312\250\317;\275\201\271:\342\036*9\311/S\273\376\335 =\004\324\013=\207\004\276;tu\244<,e(;\001GV\273\017\316\004<aN\033<e\204/\274\274\230+=\327xf<pF\306\273.\366\353;\367\311n\273R*\206<\002\005:<\376q2=R\355\313<A9\032<\022\264W=\330\253\222<\317I\221<\000\037\212;c$\006=\037\034\272\273\275\235\033=HJ\236<\003-I:oz\362<M@\352;\t\324\261<\002\3335;_\201\'=\035\223x<+_\262;\242\370\251<\351\177\022\274\005\245?<\320\306\202<F\220\240\274\256\245\365\273w\247\031=\274\360u<\321\243$\274\003\261\241<\317\275\300\273\360{_\274\035\235\005=\330\3020<D\021\226<\340\321}<\334|\257<J\270J\273_\233\017\273\331:\235<\225\303\013<\332\301\200\274)\356\036=\005D\250<\261I\031\274\030\025\014=\346\355V<\210\305\225<\250|.<\201U5=\357\335\371:\367\312\363;r#\035=\265\221&9r\355\265\274>5X\273\256\004E\273\222I4\274Q\000\244;c4\360\274\031\327T<Rx\r\274\335\252\377\272 \306\270<\027V@\274~\246\354<I\026\226<\337\376#\274B\223\030=\370\320\"\274\234/t\274r\221\243\272_\307\256;\230B\031<\366\230\002<\361\033]\274\263\224t;\213W4\274\203*\374\273\274\361\n=\213_\210\274\265\223\007=\\\331\200<\306\266\007\273!\2439=n\022\316\273Ec\225\274\366\010\326\274\274\205\030<\272\260u\274\246\312\211\274\204\260\032:Z\236i\273\356;G<\351v-<\271\3647;\3207\222\274My\225<U\230\213<)\236&\274Z\007F=\206\014\222\273u\036\006;\323%F<h\235f;\230\004\244<&\'\216\273eb\026\274C\317H<\210\031\006;K\005\302<\305\214\360<\342\221\313\274\n\254E;\366\347Q<\327\305\340<HVj;\323\330\206<\363\177\000\274K\341\234\274v;9<\306\302\034<J\210\0009\324\250\342\273\005i\265;\245h\243;\033B\214;j\262\024=T\363\306\274\302\333\305<\361\235z<\021\223><\t\032\025=r\303~;\376F\003\274W?\322;\342u\352\272\272\367\236\273=\340\r=,\255\\;}\301\244\274\241\262\005\274\037\030\027<c\364\357<\237s ;;\371W<\2316\200<\3056\003=\n!\276<\256\304\232\272\016\023L\274c\377F\273\204\207\027;\300\217\017<\303\026\331\273\272\263\356\273&\004}<\211\316\n\274\034U\247;\254g\250<\264\343\256\274`3\241:\213\350n<\322`\000\274@t\360<\t\021\213<\373\263\213;\001\023\374\273Z\032q;\264\026R\273\032\250\027\274\007\027\302\274\205d\315;\010\003\222\274\201mi<\301\201x<k#\246\274\n<\265<\247\033{<\301\322\r\272A\256\027=FgM<k\3455\273I\246\r\275\357\363C<\250\036\255\274XX\206\273\205\007\246\274\314|\3369\256)\023\273R|\n<\\\020\367<\335\302Z\274O\247\005=\250[(=%\260\326\274v\221/=7\n\'<\003\247\340\274\206x\254\271\204/*<@r\220<^\002\016<I\314O\274\252\260\003;\201\314\226;\226\266\000\274{\274\025=J\201\214\274\334\251\237<\376N\026=\027\010\356;\256\354\360<p\322\233<\367^\304\274\0255\270\273.\221\206<G8\211;2\014M\274\251\3646\274\026=\365;!\003o;\262d\025<\243Z\002=\253\213\005\275i\376\306<\316E\000=1\'\200;\253\270\013=\270\240#<\t\021R\274\260&\205:,\r:;\232\\\241;\003ho\272\026\022\\\273\332#R<\260\215\332;\322\'\314\273\330j\266<\336e\244\274L\253\234<\234G\n=\233\263\237:\271\035\330<Ai4\273\004\300\371\273\251\0162;\001$9;a\222\017;\273\314\025\273\274h\353\274\337\232,<\026\245\207<\321\270\224\274/8\'\273~\202!\274\300T\266;YK\307<\344\263\013<\\\217\354<\343=\237<\325,\234\274AW\220\272\270b\277;>\237j\273yH\231\273\177p\364\273R\204B<\354\024\003<\036\020\300:\360\205\260<\352`.;\213\016\315;\356\211\214<e\330\202;\252\261\276<\277\325\3449a\323C\274V\331\2629\027\007f;=`X\273\254\004\263;b\252\227\273\241\\ \273\240\262\002\274\010)`9V\010\257<\243S<\274\332C\302<\264\336\252<\331\364.;\3169e<\213\013\314;,0l\272\360\205\014\275\030\373\205\272\'\265\252\273P\027\024<\202\360H\274\t\033T<\241\020\3329\227\312\017<X\264\023=~\277(\274\226\033s<\324\344g<.\315_;\235\356?=\220\333\242<r;\365\273\256\203+\272\335\303\003<\006\267U<\202\201$\273\037:\304;\324%#\274\236\307\210<(a&<,w&=\227\306\307\274\246p:<B\302\251<\300\275\354\2721\221\362<\314\330\206<`\3524\273xy\335\274X\343\003<q\353\201\274A\363\025:7\016\002\275\341\200-<\00041\274\360P\366;\231y\222<\346\270\301\274\256)^<\311p\252<\305\200<\274\221\035\353<\252\276\220;i\306<\274\rg&<\300\336K<\267\036\355:\322\203\223;*]\356\273\212X\353<\306\362x\274\371\313\310<r\202J<@,!\275\367\240\214<\211~\253<O\231\253;\035\320\213<\363\357,<\033\363\217\274j\271\214\274\301\367^;\352\213\361\273\263\275\213\273\212i\242\273\030\203\"<\010\261\302;\315b!<\237\240\245<\342\313\361\274\355d\270<\344V#=\3002\220<\227\n\r=\321m\207;\377\207\220\274R\034\004;$\331\211:\237\374\334<\334\021\247<\320\263\266\273\360`-;\336s\031\2738Z\347<V\351\032=\361\204\037\275\276\323\037<s8\256<=\300T<\017\210\372<\020\255\033<\247\302\321\274+\352\232<\353\273k<\016\200\010=\027K\337<\236\271\031<O\355\256;\036\364\027\273\032\250\265<$\254\313<\215\323\374\274mv\235<`\225\341<*i\272<Gp,<\216W\007\273l\353\250\273\311Q\307\273|\341\305:\033\000\233<\036s\251;5U\215\273\373XX\274/\\C<\310\332\340\273\317h:=Uh\342\274\353\266\335\273\215\240\307<\0175\314<\257\224\332<\0030\275<s\206\261\274\220@\2359r\265\355<\344y\301<\265\016\314:\322\352\311;d#\333\2746\341\335<\025\206\r=P.\003<\262rX\273,\235O<\357\361h<S\022\310<\353E5<\360\330\330;\004U\212\274k\246\201:\204i)<\353\374\257;\253\200\227\273\332\253):koi\274\330\223\271<\227\016\210<\371\3425=Go\027\275\315\207\340<h\240\211<\007(\331<\322\\\226<\033#\264<\273\254\007\274\000\027\353<?\037\036;j\257\253<\267\270&=\326\002\255<8\261\022\273\327\240\212;\313\277p<7-\254<F\376\356\274\214\206\247<\030\234\305<\354T\341<j\r\352;Lm\025<\317\033\227\274NY\223<\376\024N<\353p\352;\300q\237<\272\364\321:h\364\246;\323\035\260;\324t\255<V\t4=\301C]\274\246\222\362;\032\344z<>\031\312;\216\323\206<\320\375\376;S\272\350\274S\001\026<\254\342\214<\333\336\253<s%\204<m\263\363\273\320S\241\271\363X\261<\003\017\177<\252\2733=\221\232\026\275r\206\321<\024\240T<@\330\275<\037u\223<\253\"\302;\235r\325\274\201J\244\273\363\034\030<\005f\306<Y.\247<\243\357\016\274\0218\326;\016\363\312\2739\243\201<\330\321\351<\201\014\000\275`\312\253<\330\336\333<~\344\370<\225D\010=b\257\225<\266\376\242\274\312/5<\033EA<K\231T;v>\320<h\274\014<\360c\237:\307?\274;\\\227\276<\316\336\376<\220\n\240\274a\307\230<_c\310<Ma\357;\004\\\254<M\362\031;\222A\213\274*\226\312<J0\236<\263#\375<\017^c<\304\343M<\311\356\211\273\314N\270\273\201\272\302<\263\350p<37\323\274\017\2225<$\006\032=\024\201\277<\r\\-;\320\245\335\273\355\327\361\274\016\024\325\272\260|0;\217\330n:R\265U<\213@\004<\2231\014<\250\255\323\273H\261`;}\261\300<\022u\333\274\245v\365;\334\357\205<A\273\010<\214\325\221<N\362q<\"\2123\274FVD:\321\253\262;\021+\344<\\\245\027;\312R\236\273kvo<I\013\217<\255l0<\007\213\372<\272\002\000\275W\255J<\023I\261<\233\215`<\016\'\307<\264\351\371\272O\327\250\274\037\346\3419\013_x<\3729w<X\\\250<\216\013/\274*q;\274\001\345\225<\360\326\201<\030\215+=@\\&\275cF\232<\327\263\324<ma~<\235\325\n=\002\210N<\315\202\017\2755\326\241;G\203\305;m\215\204<\273\324\355;\272\2649<G\326\006\274\205V~;\265\272\210<H\342\004=\016\267\030\275\026\nZ<\000!\032=\356;\307<\257\302\026<\333\227\002\274\341\346{\274I\032\373\273\326e\250<\374\221\340;SO\371\273z\224\300\272\261\253\205\274^z\200;\325U\334\272\361\214\365<\017\267\246\274\032*\337<\255~\022=\330\216\245<N\364\355<\332Z\220;\007\200\021\275|\324\244<\213r\360<\302\033/<\'\377)<\021Q\313;\245\336\205\274m\237>\274qS\333<\305\003\t=l\376H\274\347\373\007<3\353I<k$\010=\r\335\n<7R\362;\006\257\001\273R\365\245\272\033\220\330;\220:\307:\200\006\005\273h\001\325;L\250\026<#\203\021;\370\203\026=\211\001-=\255%\031\274]5\342<\331e\215<\306\266\202<\373\240\342;\000\217\346;\212\023\333\274Y^F<\246\250\223<\202k\033<\365.\360\270\266\302\367;\366\230\377\274h.R<H\207\356<\006+\331<%\016\310\273,6\223;\034\022Q;\305I\335<\321\226\235<\336\036\225:\307\375\006\275\274~n<\260\275\252<31\374<\025\241\211<\225\t\324\273\370\271\316\273\224\311\247\273\326\262\017=,\263C=v\334\207\274\t\300\326<\344\315\031<k1\311<\272g%<\242i\216<E{\354\274\177p\303<8\005\264<\364z\320<\263\304\301<{o&\274,\334\265\274\244\021\225<\213\354\216<\353G\225<87\034\275h\260\017=w\221\362<9\212\272<\376\263\246<\033\035\235;\036\335\312\274\236[\352;\242^ =-\326\252< M\344<H\226N<B\365\026\275\222\355\002<u:\034=\231\007\320<\355\256\225\274\013)\256<\323\3633;\\\1771<\305\327\222\272>I\266\273\026\002w\273*e\274;\346\021\307:\014\273\010<\2573\031<3\250\016<.\324\021\275\003b\003<\035)\007=m\235\"=\213z\345\273\214\302><\372\336\257<\352@\331<\004\343>;\262$,<\376\300\334\274o\350f;\262\354\340<\343\301\004:\274l\212<\221\361*<\\\217!\275y\007\n=t\254T\274\3151[<\272\341;;\r\017\371<\243\363\001<K\221\214<\273\213\221<\272\277:<3\251\226\274\253\200\013=\352\020\272<>|\014<\335n\336<\304=\204\272#\247\251\274\356\232\360;\336\273\005=\274\003\236<3\211_\274\260Q6=J<\233<\202\214>=Bz\245<c\014\252;\'\254?;gn2=Jv\227;N^p<\000\333\\=*N\217<\005\177\222;\251\343\223<\031J:<\242\275\363<\210\\\330\274\227)\344<\327\342\224<\350\177\353<\347\241\236<\267[d<\352\233\235\274)\324\357;\326\210\001=\360\230\255;\312\303*<\274Y\0039\n\315P\275\371\003\353<7\347\244:\233\235\020=y\317[\272\243\220\201<Z.e<\2047\320<\361\220\204;\330\303\016=\322\345\\\2746\275\374<\357i\010=p\317\237\272\'\033\335<\037\300\302<C\023\346\274\235\226\353<\255c\326<\316\027\271<\236\013\223\274\266N\225<\024\360C<\016\021\360<\363\300\321<\363\353\331<\306X\206\274\205\361\214<Fj\302;\302\206\361;\253\243\001;\3705\035<q}\032\274\t\270\204<~`\263<\240\320\037=\255\357/\275F\371\304;7\276\013=b6\341<\264T5;\014$\376;\241Z\333\274\211\t\313<\220-/<W<\305;\370a\005=N\2309<A\206\244\274\327@\242<du\357<\341\357\273<\306~\270\274`\264\032=7n\201<\351\013%=\201n\354<a\021\217<F\217\n\275\032\n\254<\272\326<=p\313#\272\352\256\033<%\314:<\270\351;\275Q<\345<87D</\370\002=!~\223\274\000t\006=}4\234<0\210\004<\207J\031<\322\206K<%\260\232\273\002C\010=c%\022=AOQ\273\250\347\034=\300\245\244<\201\306\317\274\023S\257<\032>\227<sg?=\'>\263\274L\316\360<u0\271<Y\2450==\203w<M\244\237<\233e\r\274\265i\037<\177P\261<\003\321\356;8\212\311<\245\241x< \211\351\274\262-V<\216\231\002=\023EP=\2707\221\274)\267\262<\006k\374<\2637B=\3225|<\253\032\277<\245 \016\274\341\204\233<\252Nw<\265\337K<\325k\331<.)\205;3x\366\274u\327\257<\207\310\314<R\232\254<\327\222\374\274\340j-=\201w\326<\305^\335<V\267g<8\370k<\347>\010\275\303\313\202<\322\025\372<\314\001\270\265\337\265\321<\217P7<\250\332\253\274\312\'\231<GGC<!T\331<\023\005^\274/\373\367<\333\321\277<\003\247\026=\035\207i;\345\376\312\271\204/\025\274\005\333~<a\002T<\031\244\026<\031\004\330<\342\223x<\303\305\210\274\367Un<\246;Y\273\374\202\275<\013\261\260\274\230\264\177;\231\341\316<\264\255\246<\240\254\266;\373?\305;a\207\327\274:\317\324<\3642&=\264\335k<\017\242\313<\363\270\202\273\360\005F\275\023\224\256<,Mi<&\251\002=j\320\365\274K\331\004=\220\202J<\335\025\'=\240\217\n=\234\021V;V\235a\274\262l\226<p\343\036=L\025\347;\310\212\212<\210D&<$\026\272\274]\334\236<\364%\030={Y*=u\317:\273O\266.=j\311\203<r\006\r=+\214-;T\252\276<@Y\232\273.\302\337<X\357\361<\214:-\274%\251\271;\270\"\022<\301\326\341\274\260\201\005=\000c\243<\241\271j<\177j]\274ZE/=j\311\354<\225\334\234<\ne\243<\021\325;<V\020\305\274\257p\257<\244\002 =>\265\300<\351-\334<r$\221<\253\333\"\275\304t\254<\267\272\355<E@y<imU;x\367\n=N\257\325<N\031\021=\213\n\016=\373y\326<\246\006\202\274\241\221\221<X\356\001=\225o\021\273 \020\r=\235\313\316\272@aU\275&\347\374<a\350d<+\303\324<\027\243\246\273\365K==a!\347<\345f\005=\177\254d<C\265\231\272!/T\274v\334\267<H\371\320<\307Y\352\2742\3130=\013\017-<\362m7\275S.\262<E\202\021;\273\006\213<\037\263\n<\233\275\254<\022*><\240\2649<\371\216\333<W\220\365<\355\237o\274q[\177;\236\004\025=\360C\276\272\221\022\266<\377~\336;\350\312?\275\257\275\025=\245\355\003<:Z\204<}\323\275\273\247\024\014=\r\366\344<-\330\262<\"\027\234<\233\235\340\273\325\251R<\251\214\365;\305<\221<d\215\235\274e\266\220<\344>\237<z,\025\274\275lE\272$N\t\274\216\216\214\274Q\335\341<\235)\222<\335[*<\371q\3019p\216N=jx\036\273\226 \202\274\177J\242<x_\004=\200\314y\273y\352@=\373\017\017<j\227a\275G\344\314<N\260x<\264\014\201<X\n\204\272\223\256H=.\312?<\0356\304< \331E=\361\027\"=Ay\303\274RK\231<\331@\000=\032\247p<\354\217\036=\315\262\004=\206\270\253\274?\031\007=\253B =\214\013O<\330\276\204\274\003\355\031=3\357\004<\003\220\365<4\014\354<\361\276\362\273543\273\340*\205<\375\265\355<\337\024\305\274\261\003\321<ay\024<\265\3350\275\024\302G<\035\311W\273\263:\230\274\217@ <\330\247\374<\373\022\202<\007\2003\273\023\362`=\267\322W<\375\345\307\2743\023G\271G\004\003=W\320q\274\365\315\030=G\374\213;\246J\024\275I\274\311<\036Dc<\372\252\237\272\024\355\241;I\014C=,\310\264<\3404\323<\243G\360<\354\2000<\354\021\241\274\325\321i<J\227C=\347\273\027;\010Q\035=T8\254<\207\230\350\274S\243)=\234Q\253<\273w\022=\304\304\032\274\263T\226<(\364\234<\252\325#=_\355\312<\300\273\314<\030l\216\274\224\336\243<\022\017\315<\006\363#\274L\342\017=\025t\201<\374Z\325\274w\206Z<\211\2661<\340\362\214<I\032l\274L\314\372<\026\316\256<\265\"\357<\252\214\017=\320\265\221<\362\342\270\274\2415f;\264\202\217<\022\022\244\274\271\010\004=\223,\207<9:\032\275\244\301\234<\366{\325:9[\'<\372k\263;\340\312\367<Q\006{<\256;\244<\020\205\332<-\231\250;\317\207\323\274\371\241\261<z\342\373<\304Q0\274Y\304#=\035\347]<\337\"e\275\323\335\264<\001@8<\257HE<\237J\324\272\201\247l<A\020\005=\035Z\024=\261/\261<C\374\310<\244\373\264\274\3662\244<\357\336\031=\226\225z7\217N\225<\300w\270<\205\303\026\275\265M\232<\206\365|\273\366\315\275;\260\231\027<\256o\263<\341 \036=\201\004\253<%\202\240<\252\370\220;\313P\206\274\355\246\224<\276\004\014=Y\177\214\271e\004\205<r\246\n<\035\336F\275\270\346\013=\334d\253:L~\243;Bv\230\273\212\310\034=|t\'<\240\215\325;\375\370\374<\350\244\2569\376u\272\274t\200\321;\332x\367<a\204\275\274v\253\022=\3510\027=\234va\275\336$\352<\244\333 ;.*\272<l\006\242\271\352\266\254<\'\326\336<X_\243<\021\233\026=\252\221\232;\231W6\274\226\253%<\370W\277<z\344P\274J\256\254<\260\237\225<\3560<\275\337v\215< \270{;\362\351\206\273\205\375(\273\034\255\021= \014%=Mv\211<(G\246<\221Q\002=\367P|\274z\366+<`\004\237<\252$/:\263j\002=o\345\334<\304\310L\275U\340\020=\027\353v:|\220Y<[\242W\274\303\251\347<\032\317\000=\371E\013<\306\2450=\201\262\343<2P\004\275D\374+<E\377\224<\377\370\237\274\026\240U<Y\361p<\006\032K\275\231\342\241<\342[\213;\241\375\246<j\006\272\273\335/\303<A\240S<\250\365\263<\327\257\214<s\363S\274\237=\t\274\207w\222;\320\226\233<\274\224\000\274\307\226\361<1M\243<\247\032-\275\301-\213<\216W\000\274Z!1\274vG\265<,\374\303<\\l\330<\321\033\034;_-M=\262:\222<\013$B\2743\266a<\276N\003=\310\036q\274\322|8=\201\273\316;\032\236i\275\271g\233<\213\221\310;|\347\304<i\320=<\250\013$=\365O\244<\3654\212<\275(\010=:!k;\250\316.\274d\312\221<b\223\306<\025\212\242\274\"y\261<w\031I<I \360\274\343\355\324<\317\261D\274\242\252\306;\2638\301\272\3304R=\r!\257;\230\315\352;X\361\340<+V\230\273\311\341c\274\212\335\272\273\230\r\221<\273\316\212\274\341\2144=\036O\245<\215\301\310\274j\230\214<Q\245\313;\225f\210\274\374\360\034<\370&\014=G\035\007=\211\247g<\240S>=\204@P\273\254\331\005<\010\310m; L$=r\023\237\274\020\225\361<l=\003=\024\233>\274\231u\323;#^\363;\3104\266\271n~?<z*\t=\275W\316<\210h\013;B\235^=,\222\274\274\227\021\210;\025\003\331\273\345\n\257\273\346\255-;\325\003\031<\262\255P:t\005\300<\224\032\317\274\315$\032\273\213\320\230\274\204%5=\310tk\273|M|<{\314\027<\252\200\275<\222 \212;3\r\254;\344K<;\033\334\240<\213J;\274\242\232\010=6>\330<\217%\317\274E\261\326;\215\006C9\271*\226\274\304\220\341;\010a\"=\320D\260<\204 \233\273\272\2516=\377\027\261<\237\013\206\274\232w\026<\345\226\\<\371\3174<\020\t!=\371\032\363<\372\030q\274\341\313\343<\037;i\274\363;\005=_d\207\274L\244\266<\222z\212<\345x\002=\034\377\017=\210\264\223\274\034\313\226;L\265\337\271\357\004\000\2741,\350;\006\r\263<\216\256\255<T\023\230:\035\217\310\272\242\304\361;4L1\274\024\340\"=\352\234\210<K\255\202<\365\232\327\273\253\370\n=\005\204\262\273\331h\034\274D\276\226:\277/\261<]*\303\274d\231\370<\210\230\317<\365\037\035\273\223XH<\302\364\222;<\222\276\274Y\335\026<\237\034\027=\205.\307<=\206\266<\353]\036=\351\253\235:b\273\251\273\305P\035<)\004\'=\'\265\236\274b!\251<,\377\316<\272\333\255\274Z?\010=\237L\301\273\355:\365;\2046\303\273\237\021\346<;qo<J\346<<\303\307\353<:YO\274\365D(<X\000\273<U\366\312<\tW\353\273\246w\377<W\263\347<\354\226\353\274\207\\\000=\020\331\256<\203\200\242\273q\345[<?EL=\t\357\325<\t\203\264;^\203$=\252\036\374\274D\007Y\274y\3325\274\355g\251;\247i\263\274\267\211V<\244I^<\256\021\326\274j_I<.\n\266;\253\364\231\274\302.\256<C\327\260<{\213\t=]p\010<\330\371\033= \034\200\274\354\n\316\273\265\325C\274\352\352\204<P\201\264\274\006\016>=\000\223P<\316;\345\274\212+G<y\235\200\274\271\303\022\2740\"\203<\254$\266<\204\324\376<\2033\354;\232b\335<d\\\035\273o\211-\274\026l\024\273.\035\274<\274\311\203\274\025j\t=\t\304\006\272\260\013\252\274\323\320\377<oR\000;\224\021\251\273\005gx<\275f\313<\234\233d<-\003P<\200\021\013=\tj\221\274u\020\354;\214\375\375;\375dF\273\343]\0039\343\t\356<\372n\270<\374\307\267\274\272\373\207<J\260\371:\235o\035\274\014\371\272;\322\270\330<t\250\345<\034\027\257<\306b\317<\025\030\317;\202w\205\273\026\310\017<\211\371\304<7\014\201\274ak\022=\243|\375<8\373\205\274\2128\n=\230>\221<\211St\273\366Mp<=b\326<_A\300<\251\2209<\257q\013=8\203\366:/\334,\273\356\200\237:\3011\334<\3503\267\272(4\016=\2350f<\024\206\024\275\220\322\315;T#\302\273\2235\305\273m\362\003<_\314\217<\303\214\244<\207\325b\272p\034\014=\210~-\274\207\006\267\273\tV:<\020\272\247<\365\035j\274\315O&=!H\352<]\017\243\274\3748\n<=w\346\271\263\217\367\273`\2728<\304\234\'=\243\322a<1Ch:\312\3627=WN\202\274\357\254\236\273\233\225\346\271\3521a<\350\341X\274r\r\263<\\k\"<X!\001\275\334\226f<\206G=<u\310\354\273Y\335\267<\021!+=\372\342D<$g9<\206\327$=\253\313\311\274\007\363\351;\2421\213\273\337\t\265;\223g\254\271\377\324m<\255\250\257;.\030\302;\221\315\346\273\324\303\370\273\254\210\347\274\315&\337<\247D\245<\305G(=\222\250\030<$U\304<\331lA\274\036\r\021\274\251\'\257<\301\375u<\010\276\342\2734x.=\243\273\241<\r\032\262\274\3402\331;\260C\271\273\023\032s\274\"\377\204\273\327f\264<\232\375\364<i\030I<`\217S="
      }
    }
  }
}
node {
  name: "Lenet/conv3/weights/read"
  op: "Identity"
  input: "Lenet/conv3/weights"
  attr {
    key: "T"
    value {
      type: DT_FLOAT
    }
  }
  attr {
    key: "_class"
    value {
      list {
        s: "loc:@Lenet/conv3/weights"
      }
    }
  }
}
node {
  name: "Lenet/conv3/biases"
  op: "Const"
  attr {
    key: "dtype"
    value {
      type: DT_FLOAT
    }
  }
  attr {
    key: "value"
    value {
      tensor {
        dtype: DT_FLOAT
        tensor_shape {
          dim {
            size: 16
          }
        }
        tensor_content: "\270\007\235;D\244\251;\350\373\301\273!%\210<\224/\202\272\301\"\016\272\314C\251\273#\037]< G\213<T\177p\271\025x<9\237\365\266<\031a\206<\303o\235<\tx\265\273\0320\236<"
      }
    }
  }
}
node {
  name: "Lenet/conv3/biases/read"
  op: "Identity"
  input: "Lenet/conv3/biases"
  attr {
    key: "T"
    value {
      type: DT_FLOAT
    }
  }
  attr {
    key: "_class"
    value {
      list {
        s: "loc:@Lenet/conv3/biases"
      }
    }
  }
}
node {
  name: "Lenet/conv5/weights"
  op: "Const"
  attr {
    key: "dtype"
    value {
      type: DT_FLOAT
    }
  }
  attr {
    key: "value"
    value {
      tensor {
        dtype: DT_FLOAT
        tensor_shape {
          dim {
            size: 5
          }
          dim {
            size: 5
          }
          dim {
            size: 16
          }
          dim {
            size: 120
          }
        }
